#version: 0.2
a a
s i
t i
n i
ŋ a
t u
a u
a q
r u
m i
a l
s u
p i
u n</w>
g i
a ġ
i ñ
i t
l u
m a
c h
a n
a v
i ḷ
l i
u q
c h</w>
a ŋ
u n
u ti
a k
u v
a i
a ŋa
iñ u
it ch
g u
s i</w>
l aa
a t
aq tu
si i</w>
ru a
ni k</w>
av r
itch u
g u</w>
ġ i
s r
q u
m un</w>
T avr
al l
k i
a a</w>
G o
p a
ŋa g
ŋ a</w>
aa sii</w>
i q
i s
t au
mi k</w>
u k
d -
J e
ñ i
ŋa ru
a g
Tavr a</w>
Go d-
k a
y u
l l
gi ch</w>
v i
au ti
n i</w>
a ni
al u
q i
ḷ u
i ch</w>
ł u
t aa
a t</w>
l i</w>
laa n</w>
tu n</w>
n un</w>
a ti
an u
m i</w>
v lu
ġ u
n a
uq all
k sr
God- i
aġ i
k u
Je su
t ch
mi ñ
God-i m</w>
aa q
a q</w>
i si
Jesu s</w>
i li
ni q
n a</w>
l u</w>
uv lu
su li</w>
au r
anu q</w>
a itchu
si v
ł ̣
aa t</w>
rua t</w>
si ñ
s aa
m ma
ru q</w>
i su
ŋaru q</w>
t a</w>
un i</w>
i n
uk pi
p k
A a
u t
a i</w>
i ġ
lu q
i y
it qu
i l
u ġ
- gu
pa y
iñu u
a mik</w>
t ai
a r
a m
aq ti
an i</w>
n un
a nik</w>
i g
iñ ñ
uqall auti
ḷ u</w>
aġ ni
aq si
a ma
aġ u
ŋag aa</w>
gu t</w>
n al
iñu ich</w>
au n
aŋa iy
al i
k k
i luq
mi ñ</w>
ak sr
A t
rua q</w>
ñi k</w>
r i
v si</w>
ka ma
iñ i
u mi
q anuq</w>
tch i
it tu
m na</w>
mi u
r is
si q
uti ŋ</w>
aq ł
aŋ a</w>
g a</w>
C h
s av
Ch ris
a pi
ŋaru t</w>
si gi
g un</w>
an un</w>
a p
lu gu</w>
vlu gu</w>
uv i
ŋag ai</w>
t qu
k su
aq łu
un ni
tu q
a m</w>
ll u</w>
n aa
aŋa ruq</w>
uti gi
p aŋ
ku a</w>
- mun</w>
siñ ñ
uti q
ai ch</w>
u u
Aa sii</w>
aqtu q</w>
ag laan</w>
yu miñ
iñu ŋ
Je w
ti ŋ
ama t
S u
li q
i laan</w>
T aa
au si
au ll
a mun</w>
ru t</w>
ti n</w>
q ati
I ñ
iḷ u
r au
m a</w>
Jew -gu
ŋ itchu
tau tu
ŋag aat</w>
m al
it k
iḷ ḷ
A g
tu qu
pi tqu
pay aa
ak tu
tu saa
aa ġ
ni ġ
q au
iḷ aŋ
ġi ksu
u si
i laa
isi ma
s ru
ag li
pitqu r
m u
t amat
a mi
q tu
At ani
q ai
u t</w>
q ł
r ru
aq u
I l
al iq
a iñ
Q anuq</w>
ni ñ</w>
g aa
an n
iḷ is
uq alu
ili v
ł̣ u
s al
pi ḷu
ti ŋ</w>
aŋaiy yu
k tu
s -
aġ mi
God- mun</w>
s au
q uvlu
aaq tu
lu gich</w>
ŋ i
k un</w>
v ḷu
pi ḷ
n u
al li
niq su
n agli
Go d</w>
is a</w>
g lu</w>
a tun</w>
pi sigi
a mi</w>
ti laa
iñu k</w>
pa k</w>
Chris t</w>
taa mna</w>
i m
ŋ u
a su
v ru
łu gu</w>
Ag laan</w>
iq si
v a</w>
t avr
u y
n au
ut t
u r
siv u
itqu r
pi vi
aŋa g
Iñ u
iḷ itch
ki u
iḷ i
iḷ isima
at an
ġ aq
naa g
tai n
aŋaiy y
I ḷ
ki v
aqtu aq</w>
ili ŋ
pi gi
ksr au
qu li
l lu
aq p
aġ at
uv am
ni ġi
aqtu t</w>
siññ un</w>
ġ ñi
Su li</w>
nal aun
unni i</w>
k p
tau q</w>
e -
ł h
iġ ñi
T ai
at au
aq tau
U v
J o
u ŋ</w>
iḷitch itqur
s a</w>
iḷis aur
aŋa rut</w>
at ch
Taa mna</w>
ni aġ
mal ġu
ŋa gi
iñu gi
itqu si
e t
il aa</w>
aqł uni</w>
vlu gich</w>
n ai
aġ lu
si ḷ
a -
ġaq sru
r aksr
g alu
aqtu at</w>
i vi
a gu
ti gi
mma n</w>
a y
ti li
i v
ŋa nik</w>
tu t
pivi utt
pi su
ti gu
sav aa
ai sa</w>
ł uni</w>
n alu
Tavr aasii</w>
Chris t
uq auti
r r
itchu ġi
uġ aa
e r
tamat kua</w>
q a
k pi
At an
at a</w>
vi ŋ
q iḷaŋ
iliv siññun</w>
Il itqusi
kiv g
aġmi ŋ</w>
uk tu
mi ŋ
q anu
iḷu mun</w>
ukpi ġ
ukpi qtu
u ll
aŋaiyy uvi
all u</w>
Ilitqusi ġiksu
iq tu
aŋ ŋa
P au
i łu
iḷ itchuġi
ak un</w>
ma ni
al ġaqsru
t quvlu
ma n</w>
k aŋ
aqłu gu</w>
Tai n
umi al
iq su
ŋ iñ
taa vru
ru ŋa</w>
ma pak</w>
pa n</w>
naag ga</w>
aliq aa</w>
ġu m</w>
Jew-gu ruat</w>
kama n
aġ na
q an
I ġñi
uq tu
mi ñik</w>
I li
m mi
ŋ ŋ
ġ ni
iñi k</w>
ŋ ich</w>
q si
isu ma
ili vsi</w>
ati gi
pi ŋa
p qi
uqall aŋaruq</w>
itchu q</w>
g aa</w>
U q
ti k
n an
miñ un</w>
i ka
i k
uv aŋa</w>
un a</w>
ti gut</w>
q uvi
ŋ i</w>
rua m</w>
au v
a tu
niq si
ak ti
- m</w>
ŋag aa
qati gi
pi aġat
nagli k
aŋ i
ḷu gu</w>
quli aqtu
ilaa nun</w>
aqł utiŋ</w>
uvam nun</w>
mi qł
gu m</w>
łu gich</w>
t k
rua mik</w>
-gu m</w>
n ak
in na</w>
siñ ñik</w>
aqti laa
rua tun</w>
k ku
m aa
Atan ġum</w>
ka mi
ap tiŋ
gi vsi</w>
a h
ñi ñ</w>
u tau
t a
nalaun ŋa
P et
ḷ uni</w>
aŋ i</w>
at ausi
n ni
m miu
yu gaa
n aq
iññ un</w>
iluq aġmiŋ</w>
Jo h
t at
i mi
vḷu gu</w>
si uŋ</w>
ru anun</w>
k si</w>
s e
api ġi
M o
ḷu gich</w>
pi q
paŋ mapak</w>
aŋa l
p kua</w>
ag lu
tch i</w>
s aaq
rua nik</w>
ani ġ
miqł iqtu
liq siq
k ł
is aġu
ġ au
ḷ ḷu</w>
tusaa yugaa
k av
iñugi aktu
payaa q</w>
ti gun</w>
p tiŋ
kama gi
i niq
siv unni
nalu pqi
isi v
su aŋŋa
isiv ġi
tusaayugaa ġiksu
sigi k</w>
m m
aŋ uy
pi raksr
p ta</w>
ki si
iñu g
ag l
uqallauti ŋagai</w>
pisigi vlugu</w>
atan niqsi
aa n
uv va</w>
tu v
q uti
ani qati
a si
Pau l</w>
q aġ
p aq
alli ma
uqallauti ŋagaa</w>
vi ch</w>
p au
iḷḷ i
isu itchu
- lu</w>
umi ali
ka ti
ti mi
s- lu</w>
iḷ ḷu</w>
it ki
ġu miñ
sr i
pay aat</w>
l li
aŋaiyyu liqsiq
t aa</w>
aŋ ŋ
aġu miñ
aqtu si</w>
a gut</w>
a e
gi k</w>
aqu p
a gi
ŋag aich</w>
siv uġaa
e m
P h
usi aq
ti q
tain na
iñuŋ nun</w>
iñuu m</w>
Aa pa
uti n</w>
un mik</w>
av i
su u
al u</w>
aitchu utigi
Aa si
ŋŋ uq
uv aptiŋ
nal un
i ni
pay aur
aŋa t</w>
uqall ak
t tu
qł i
i b
t allima
s -mun</w>
ni aqtuq</w>
k si
k ka
ru sal
q sau
ni qi
miu ŋ</w>
api q
Je rusal
I laan</w>
uv si</w>
ł̣ ł̣u
niqsu qłi
Atani q</w>
ma ni</w>
a k</w>
vlu ni</w>
u m</w>
u g
tigu taa
ki pi
il itqu
ib l
atau tchi
B ibl
un niqsuqłi
ni ḷu</w>
iñ aliqaa</w>
aqłu gich</w>
su ksr
rru ŋ</w>
ḷ utiŋ</w>
ŋa itchu
ŋ isa</w>
ru si</w>
q uq
aġ n
quvi asu
ni ŋa</w>
mi ittu
ksr aq
kaŋ iqsi
d e
av s
ak i
Tavr ani</w>
kp ut</w>
ig lu
an mun</w>
aa g
Iñ uu
ŋ ŋu
q iñ
piviutt aq
p ku
ni p
aġ l
q aa
li qi
Jerusal em
uqauti gi
si ŋa</w>
iluq aisa</w>
ati q
Jew-gu ŋitchu
piviutt aġi
aq pi
si ḷu</w>
piraksr i
itch i</w>
su ġ
na p
ma ta</w>
ma k
nan ġ
i ki
e e
aqup pi
aa si
ak k
uk si
pigi itchu
- mik</w>
q un
m ali
at aniġ
ḷu si</w>
ġu si
t h
ni i</w>
an niqsu
ŋa ruaq</w>
uy aġ
uvlu ni</w>
ukpi ġi
tk a</w>
nun am</w>
av anmun</w>
aitchu q</w>
nak uu
lu ni</w>
Mo se
Joh n</w>
aqtu amik</w>
ann aur
ŋaru ŋa</w>
tut tauq</w>
piḷu uti
malġu k</w>
k tun</w>
aq siv
ani ñ</w>
K i
ŋ nik</w>
ñ ñ
y uq
mma tigi
m nik</w>
e r</w>
usi qi
aun ġi
ak un
aa ni</w>
p h
iḷ i</w>
aun nii</w>
ł̣ ł̣
piḷu usiqi
iḷaŋ ich</w>
aŋ iñ
a si</w>
a it
ŋ itk
vlu tiŋ</w>
tain na</w>
qau ma
lu si</w>
ilitqu siq
gi ga</w>
g uti
aqtu ŋa</w>
Iñu k</w>
umial gum</w>
piḷ uksi
ll i</w>
iḷ uv
i q</w>
b r
Q anu
uv agut</w>
nau tchi
ati gun</w>
ŋa ruat</w>
yu m
tallima t</w>
siññ i</w>
nun aaq
kama ksr
iḷisaur ri
Il aa</w>
ŋ iḷ
ł utiŋ</w>
uq aqti
saa ġ
l aġni
a sii</w>
a miñ</w>
T u
u uktu
tat avs
ru ksrau
qau kł
ka mi</w>
isuitchu amun</w>
tu yu
pk aqtau
pitqur anik</w>
pi qatigi
pa si
ilaa gu
ar amik</w>
aqtu anik</w>
ak uqtu
aa si</w>
U mi
suksr aunġi
it qi
Taa vru
kpi ñ</w>
ig ḷu
kiu ŋagaa</w>
ki ch</w>
aŋ itchu
atanniqsi ma
Iḷ isima
Atani ġ
uġ uti
u l
qaġ ġi
pk un</w>
ti g
su k
p aich</w>
naag g
iłu aqsi
gi ḷḷu</w>
an ni</w>
Pet er</w>
su payaa
piŋa su
ni aġi
llu at
atch i
ann uġaa
ali uġ
Atani iq</w>
tuv aaq
t qi
si tchi</w>
p al
ni aqtut</w>
iḷisaur ru
ar r
Ilitqusiġiksu am</w>
utigi ŋa
u ŋa
s aglu
qaukł i
nalaun ŋaru
isu mal
br ah
aŋag aa</w>
at aramik</w>
Iñuu m</w>
A n
A brah
yu ma
t aġi
su n</w>
it qan
aġ vi
nagli ktu
mma ti
i r
g nik</w>
aŋaiyyu liqi
aġ lugu</w>
aġ alu
a itk
vḷu gich</w>
uqallauti givsi</w>
umiali ŋ
miñ i</w>
aġ uti
aġ a</w>
av si</w>
ataniġ naq
a iḷ
a iññ
Ph ar
J u
ł̣ h
o n</w>
naglik saaq
m aaġ
iliŋ nun</w>
ika yu
aŋ isa</w>
ak si
Uq all
I su
u umi
su aŋa
pisigi lugu</w>
miu t</w>
iġñi ġi
iġ ñ
iñuu ni
iñu sal
i gu
aq uvlu
aiñ ñi
ŋi ł̣ł̣u
ŋag alu
un u
ru gut</w>
l lugu</w>
ittu q</w>
aliuġ n
ai ġ
Christ -mun</w>
uvaptiŋ nun</w>
q api
nalupqi nai
at q
aa n</w>
T amat
laa ŋanik</w>
Christ -
y y
sr ae
iḷitchitqur at</w>
iñuŋ nik</w>
iñugiaktu at</w>
aŋaiyyuvi k
aŋa ta</w>
Tain na</w>
Phar is
I srae
ŋa itk
ksraq taa
ak ku
a n</w>
Tain na
pal auv
nal li
na gi
n nik</w>
isaġu l
i t</w>
i rru
aŋag aat</w>
atan aur
aq pa
annaur rau
Jerusalem -
łh aaqtu
v ut</w>
su mik</w>
q tau
ni glu</w>
mma tun</w>
miu q</w>
k pan</w>
ausi ma
aur ri
aitchu usiaq
ai q
Bibl e-
tavr ani</w>
k ti
aŋ ich</w>
ausi ġi
atausi ŋŋuq
all a
ai y
Pet er
tilaa ŋanik</w>
su liq
naa laġni
lu tiŋ</w>
ivi ġau
aġi ñ</w>
au l
Jesu s-mun</w>
tamat ku
sivuġaa ni</w>
sivu niq
nun amun</w>
ak u
Iñu ich</w>
nun ami</w>
nu li
mu una</w>
it quvlu
ig luq
a iññun</w>
A ull
ŋa t</w>
ġ na
uti t</w>
u ki
pitqur at</w>
palauv aksr
niġ ru
ni v
n aqsi
iliŋ ich</w>
aŋuy akti
v aa</w>
tuq qun
tili rau
tamat k
taa pkua</w>
sau q</w>
p aġl
kipi ġni
T au
Bible- ni</w>
mak it
ar g
Uv va</w>
Uv aŋa</w>
ŋitchu q</w>
ŋa iy
uq al
taa nik</w>
pi si
p tai
nagliksaaq ti
isaġu li
aŋag ai</w>
auv vaa</w>
ŋ it
y aqtu
qapi ŋa
o n
nunaaq qi
itk a</w>
aq s
ŋ ŋa</w>
ŋ iññ
ġ mi
ukpi ġu
s- mik</w>
rua mun</w>
r ri
pa ptai
kiu ŋagai</w>
iḷisaur r
iñusal aich</w>
iki pk
api aġat
al lu
ak iḷḷ
0 0
vi gi
tquvlu gu</w>
si ñi
m ñ
ittu at</w>
i suli</w>
gu lu</w>
al i</w>
Aa p
ŋ iñik</w>
uvam nik</w>
uq aqłutiŋ</w>
si ġ
sal ap
rua sii</w>
q iññ
ka miuŋ</w>
iłu iḷḷi
iniq paŋ
ilitqusiq ł̣u
e e-
aŋaiyyuvik paŋ
aġ lugich</w>
S im
P i
M ar
I ḷu
ŋa iġ
ł̣u gu</w>
quq u
quli t</w>
p u
ma tun</w>
m au
aqtu gut</w>
ag un</w>
Pau l
ŋa kk
uq ti
un nu
tuqu tau
nalun aiñ
naagg aunnii</w>
mm aġi
iġñiġi gaa</w>
g ai</w>
aŋaiyyuliqsiq paich</w>
aŋa nik</w>
an ni
ag laa
Tamat kua</w>
S av
Israe l
G al
ŋa r
uv ich</w>
ut aa</w>
tik iñ
qiḷaŋ miittu
o d-
miŋ nun</w>
mi ŋa</w>
l au
ki ŋ
ki llu
iñug g
Iḷ is
ḷu at
ŋ ŋa
ł łu
tuqqun miñ</w>
piḷ ġusi
ni aq
nap aaqtu
ksr auti
kpi ġ
iliv siññik</w>
il aisa</w>
aġ itchi</w>
aqtu am</w>
ann auti
aliq i
agl ausima
Tau tu
A niq
ġ mi</w>
uqall ausiġi
mmiu q</w>
k an
aġna q</w>
aqtu ksrau
aa ġi
Ag laa
ġ ñ
v ḷuni</w>
uti nik</w>
uqallak łuni</w>
ukpiqtu at</w>
taa gun</w>
suliq utigiŋa
ri t</w>
q iḷ
pk aġni
ma ki
m aq
k iñaliqaa</w>
iñu payaat</w>
et h
a b
Pharis ee
v siññik</w>
uq aq
uk u
tquvlu gich</w>
t aŋ
siñ ñiñ</w>
q aaq
p unni
nu tau
kami rruŋ</w>
k unnii</w>
g aat</w>
ak iḷi
Gal il
ŋaru k</w>
y aa
vlu si</w>
p ut</w>
ni ksr
mi glu</w>
i ñ</w>
i n</w>
K iñaliqaa</w>
I luq
rr aqsi
q ti
piḷu ut
pi ñi
o m
lu ŋa</w>
iviġau ma
iq sau
in miñun</w>
i pi
aŋ ŋa</w>
ani ŋ
a s</w>
P aŋ
Iġñi ŋa</w>
ŋagaa ŋa</w>
ŋ itki
umialiŋ n
ukpi li
su mi
niq sr
miŋ nik</w>
it qauma
all at</w>
aasi iḷi</w>
Ili vsi</w>
tut qi
tavr auvvaa</w>
s alu
qanu tun</w>
q aun
nalaunŋa si
iq siñ
in miñik</w>
imi ġ
ili vich</w>
auti gi
at k
aqti llugu</w>
aan ni</w>
aa nun</w>
a z
Su mman</w>
Qanu tun</w>
N alu
H er
D avi
ŋ is
qu yy
m un
aqtu tin</w>
aag laan</w>
Aniq ati
A ll
ŋiñ ñik</w>
viŋ mun</w>
ukpiġ utiq
tuv r
tch u
su t</w>
sivu lli
qau nagi
pk u</w>
pi ksraqtaa
mu ŋa</w>
mi ñi
kamaksr i
isu mmatigi
is aa
iluq aiñ
il at
au m</w>
P ilat
Joh n
Abrah am</w>
tusaayugaaġiksu aq</w>
salap qi
qa iñi
mu llu</w>
mi gun</w>
ka si
aŋuyakti t</w>
aġlu si</w>
aull aŋaruq</w>
aquppi ut
ŋ mik</w>
uvlu gu</w>
ukpiqtu agu
quliaqtu aġuti
ni vḷugu</w>
ni pa
ki ŋu
iḷis auti
ilaagu aqtau
Uqall auti
vi ksr
uq av
uq aqłuni</w>
ti k</w>
taavru ma</w>
si qi
qaġġi si
pi r
p aŋa
kk alu
iñu payaa
au tch
asu galu
aqł uk
akun ġ
aa tigut</w>
A ŋaiy
- miñ</w>
umi aqp
tainna tun</w>
su g
si iġñ
p ak
p aaq
na itchu
mmiu t</w>
li g
ittu aq</w>
aqti gi
aq t
am a</w>
a łh
Israel -gu
ŋa itchuq</w>
ł̣u gich</w>
ut tuq
uqall aktu
t tauq</w>
qiḷaŋ miñ</w>
l liq
k pa
aŋ iñik</w>
aqtu atun</w>
N al
ŋa iñ
ŋ isi
uvlu gich</w>
tamatku niŋa</w>
taa ta</w>
pitqur aŋi</w>
mi ŋ</w>
malġu gnik</w>
k aa
it q
aġ aa</w>
Tavr ali</w>
Q uvi
Mose s</w>
Galil ee-
ŋagi k</w>
ŋa nnik</w>
uti laa
uti ksr
ukpiġ uti
si gun</w>
nipa tu
nagliktu utiq
na gu</w>
kk un</w>
ki aliqaa</w>
ka i</w>
k at
iñi ñ</w>
in ŋaruq</w>
ig lau
aŋ itchuq</w>
aġ lu</w>
aġ ai</w>
aitchu t</w>
a à
a c
Taavru ma</w>
Ataniġ mun</w>
- mi</w>
ŋagi ga</w>
ŋagaa tigut</w>
tautu k
tamatk unu
ru iññ
quliaqtu aġi
qiḷaŋ mi</w>
qi ma
kiŋ uv
kaman aqsi
iḷitchuġi pk
aġu u
aġni ġ
ay au
aqtilaa ŋanik</w>
God- miñ</w>
yumiñ aqsi
yum aaqtu
w in
v lu</w>
rr aur
r aġi
qanu si
q at
nan miñi
n av
iḷuv vi
ittu t</w>
aġlu ni</w>
alġaqsru i
aa nik</w>
I t
I s
B ar
ŋu tch
unniqsuqłi isi
u llu</w>
taavru miŋa</w>
t aŋŋ
su nik</w>
qan uq
ptiŋ nik</w>
pivi ksr
p uttuq
niqi naq
n ŋaruq</w>
ma ŋŋu
iñuŋ i</w>
g od-
e n
aŋa n
aġ mi</w>
S iv
P ivi
ŋa lu</w>
uqallauti vlugu</w>
tai gu
s- kun</w>
r de
rde c
qi n
p tauq</w>
n aur
m uk
kama na
iḷ isi
ittu amik</w>
itch i
gu u
aŋa rraur
aq paŋ
an uq
ai ł̣ł̣
a- mi</w>
Sim on</w>
Mo rdec
ŋitchu ŋa</w>
u ni
t aliq
pau m</w>
naglik saaġ
n aġ
mi ḷu</w>
lu tin</w>
kivg au
k ak
iñu ktun</w>
isumal itqi
gi ññ
e l
aqtu anun</w>
aqti llu
aq uv
a s-lu</w>
Umi al
Bibl e</w>
taa t</w>
rua gu
rru ti
qai ŋaruq</w>
pi yu
ni pi
n uk
mma ta</w>
ma kpiġ
ki li
kami ŋ</w>
iḷitchitqur ani</w>
ika yuq
gaa si</w>
avi gi
aq sr
aq si</w>
anniqsu utau
akiḷḷ iḷ
Jew-guŋitchu at</w>
Iḷu mun</w>
ŋaru gut</w>
ŋ isu
ł ługu</w>
ġi q
ġ a</w>
uvlu mi</w>
tuqu ŋa
sivu ani</w>
sav auti
ru k</w>
nun a</w>
n ŋa
n niaġ
k s
isi g
aġ man</w>
ann uġ
ag ni
aa k
a -mun</w>
Quvi asu
Aasi isuli</w>
- li</w>
ŋaru si</w>
ł łuni</w>
ġ uk
v ḷutiŋ</w>
tiŋ mi
tili si
su payaat</w>
savaa gu
p aa
nalaunŋaru akun</w>
n aŋ
ka p
iñ iġ
iq i
aġi ga</w>
atanniqsi mma
at qi
ar i
aqtu amun</w>
an au
aa l
Taa pkua</w>
Paŋ mapak</w>
utt aġi
u ġu
taliq pi
t alu</w>
qaun aksr
qanu ġ
q aŋa
payaur at</w>
ki ki
kav iqsu
g ani
aŋŋ aaglaan</w>
aŋi pkaqtau
aġ ma
av siññik</w>
atausiŋŋuq atigi
ak ługu</w>
ŋ ma</w>
viŋ mi</w>
uv aŋa
u pku
u li
tut tuq
tigutaa qtau
ti v
tautu g
t am
suksraunġi qsau
su ŋa
rua ti
rua niñ</w>
q alli
q .</w>
pk un
paq in
p a</w>
ni kun</w>
nalli u
nai yaa
na yu
kiu ŋagaat</w>
isuitchu amik</w>
isu u
g uv
g aich</w>
aull aq
a- m</w>
Umi ali
Peter -m</w>
N i
Iḷis aurri
ḷu ŋa</w>
ḷu ta</w>
ŋitk alu
ŋi k</w>
łu ŋa</w>
vlu ŋa</w>
uqallauti ŋagaat</w>
umiaqp aur
ukpi liq
tu ŋ
taŋ ŋi
t t
su ur
savaa ġi
saglu qi
ru allu</w>
pi ñ
pi all
nun ami
nanmiñi q</w>
mani ŋ
kiki aktu
kaŋ iqsiñ
kasi ma
iñuu ruat</w>
isu maa
i gi
aur r
aq pan</w>
ami ŋ</w>
akiḷḷiḷ iqsu
aitchu utau
K ama
Jo se
I m
ŋa ta</w>
ŋa nun</w>
ŋ nun</w>
vlu ta</w>
uvlu t</w>
uv laa
uqall aŋarut</w>
un mun</w>
si s
piŋa yu
p atch
niġru łłu
nautchi aksr
li uti
l lugich</w>
igḷu tu
e s
aŋ nik</w>
av saa
au ruat</w>
apiq sri
api ġñ
anu llu</w>
an nun</w>
akk alu
ak isu
ai maaġ
aa tin</w>
aa pa
Tainna tuttauq</w>
Pharisee s</w>
Nalu pqi
Ju de
Ju d
God- mik</w>
E li
Aglaa lli</w>
- unnii</w>
y p
uti glu</w>
uq aqsi
ull auti
u s</w>
tuq tu
tavr a</w>
sivu niġi
si vi
raksr aġi
qi k
q aŋa</w>
nai n
m ni</w>
iñu k
iñ iq
iluqaiñ ñik</w>
gi ksi</w>
gi kput</w>
aur ru
atautchi mun</w>
aqu agun</w>
alġaqsru utigi
aksr aġi
ag gi
ae s
a yu
a siv
Tu un
T uq
R om
N aag
C aes
Aniqati it</w>
- tun</w>
ġ nik</w>
uti k</w>
ut aq
tamatkunu ŋa</w>
tainna tuttauq</w>
taa pku
su ġau
ru tin</w>
ptiŋ nun</w>
pi ññ
kk utiq
iñuu tchi
iñ un</w>
ivi ġ
itqan aiy
aull aqti
au tchi
atk a</w>
aqłu ta</w>
aq aġ
a payaaq</w>
U kpi
Her o
ł̣ uni</w>
ġ at
uumi gi
uq aqtau
tu ni
taavru muuna</w>
niqsu q</w>
kku miñ
iḷ aanni</w>
iñuu r
iñ ñi
isuma ttu
gi ñ</w>
aŋa nun</w>
ami ñik</w>
Su mik</w>
Jerusalem -mun</w>
ŋa tun</w>
ŋa it
ġu u
ġ lu</w>
uqalu k</w>
tavr ani
q t
q q
piksraqtaa ġi
pi saa
o ni
ma ŋŋuq
m aaq
ll asi
iḷ u</w>
iñ ñik</w>
itqauma yumiñ
isaġul gich</w>
iluq asi</w>
il aiññun</w>
i ŋaruq</w>
aŋaiyy uti
aŋa ruŋa</w>
aitchu usi
Z e
Pilat e</w>
Il aisa</w>
Christ- kun</w>
A l
ḷ iġ
ŋa i
łu si</w>
ł ługich</w>
vi um</w>
uvlu tiŋ</w>
uk k
q si</w>
ni vi
miŋ ni</w>
mali ġu
m nun</w>
kiŋuv aan
iñugiaktu anik</w>
iñu ut
iluq aiññun</w>
i tilaa
aŋi pk
aġn at</w>
aġi vsi</w>
ati n</w>
arr aqsi
aqp a</w>
all amik</w>
aa ni
Uv agut</w>
N un
Mose s-kun</w>
H ama
Caes ar
ŋiñ ñi
ŋa tilaa
ġ man</w>
yu g
v au
ur rau
ur r
uqallauti vlugich</w>
u i
tigutaa ġ
tig lig
ti ki
taa ġ
ta iḷ
sivu uġ
si aq
nun aglu
nunaglu ktu
na gich</w>
m aaqtu
lu ta</w>
kp ata</w>
kk aŋa</w>
killu ku
k ki
iłuiḷḷi uġ
iñuŋ mik</w>
iñupayaa nun</w>
iq sr
gaa tigut</w>
g li
aŋal at
aġna si</w>
aull auti
atiq aqtuaq</w>
aqłu ŋa</w>
aa q</w>
aa ll
Siv u
Ph ili
N agli
Aapa m</w>
ŋ ni</w>
v siŋa</w>
uyaġ ag
si ami
ru akun</w>
qu tau
q s
pi yumiñ
nu llu</w>
ni aqu
naa ma
n ag
iġ ġi
iñugi ak
in miŋnun</w>
im ma</w>
il ait
ik si
gu mi</w>
g ru
aŋaiyyuvi kp
aŋaiyyuliqi ruat</w>
aŋ it
av ilait
atanniqsima vi
at qu
a pkun</w>
a h</w>
U vlu
Tu saa
Q anuq
Q ai
00 0</w>
ḷ ḷ
ŋagaa k</w>
ŋa mmi
ŋ ñ
tusaayugaaġiksu anik</w>
ti ma
sivuġaa nun</w>
ruati in</w>
pi qa
ni k
nakuu ru
na su
n aqtu
mñ a</w>
lliq aa</w>
ku llu</w>
kati tchi
kama su
iḷisaurru ti
iv sauq</w>
isuma tu
ini ll
iliŋ isa</w>
ilitqusiq ł̣
ilaa nik</w>
ig niġ
g ñi
g yp
aŋal ati
aŋaiyyuvikpaŋ mi</w>
aŋag aich</w>
aġni aqtuq</w>
auti nik</w>
ati ŋ</w>
aq h
ap quti
ani ḷu</w>
all anik</w>
aktu at</w>
aitchu i
ah -m</w>
aaġ ni
aa ŋa</w>
J am
Iḷisaurri i</w>
Iñu gi
Ili ŋich</w>
E s
E gyp
Davi d</w>
v saa
uvlu q</w>
uti m</w>
uqalu ich</w>
uq sr
ta x
suaŋŋa tiq
su mman</w>
si uti
ru ani</w>
quvi a
qau mm
qapiŋa is
qanusi payaa
p tu
niqsr au
mu lliqaa</w>
mi ġi
makit a
ma ŋŋa</w>
ma ŋŋ
iḷ agi
iñugg unmik</w>
iñi q</w>
iq sru
gi kpiñ</w>
g uvsi</w>
e s</w>
aġ aasi</w>
apiq sru
ap ta</w>
ani glu</w>
aitchu aq</w>
Rom e-
Jew-guŋitchu anun</w>
Iluq aġmiŋ</w>
Ilitqusiġiksu aq</w>
Hero d</w>
Aŋaiy yu
Abrah am
Aasi iḷi</w>
łh iñ
ġ n
win e-
v si
uvaptiŋ nik</w>
uqall au
ukpi ŋaitchu
uk ługu</w>
u k</w>
ti gu</w>
s apiġñ
s aiññ
q iñu
q ani
piḷ ġu
piviuttaq quti
pi ch</w>
ni miġi
nalupqi su
maki nŋaruq</w>
iḷ aŋat</w>
iñuŋ mun</w>
gi vlugu</w>
d i
aqp ut</w>
ami kunnii</w>
all atu
aitchu uti
aaq tau
Sav aiññi
I g
Christ -gu
ŋagi tka</w>
yum au
usi aksr
uqav ig
umial gu
umial g
uku a</w>
tquvlu si</w>
tima a</w>
supayaa nik</w>
suk ługu</w>
qiḷaŋ mun</w>
piŋasu ni</w>
ph e
paptai qsau
niġru ti
nivi aqsi
niaġ aat</w>
ni aqtusi</w>
nalupqinai y
nal auti
nal au
na b
m e
iḷi ap
iḷ g
itk alu
is au
iliŋ iññun</w>
ilitqusiqł̣u ich</w>
il itqusi
aġu mi</w>
atausiŋŋuq atau
aq aġvi
aniqati it</w>
a s
a o
S i
Pivi uttaġi
Isu ma
Ili vich</w>
Es th
Bar nab
ŋa iqsi
łhaaqtu q</w>
ġ lu
vi k</w>
uvlu ġi
uv ap
uqalu ŋich</w>
uq am
tu s
tiv raġi
taġi u
tavr aŋŋaaglaan</w>
tai pkua</w>
sivunni uġ
salu ma
qł uni</w>
qati qtu
ptiŋ ni</w>
piḷ uktu
p ata</w>
o r
n ni</w>
mma tiq
ma yu
iḷu mu
iḷu gu</w>
iḷaŋ isa</w>
iñuŋ isa</w>
iñu payaaq</w>
ig un</w>
aŋa iġ
aġ uvsi</w>
apiġi ŋagaat</w>
an ay
alla tuq
aliuġn aqtuanik</w>
ai pi
aaġ utigi
aa ka
a miñun</w>
a itki
Q au
Ki aliqaa</w>
Jesu s-mik</w>
Egyp t
ŋił̣ł̣u gu</w>
ŋiñ un</w>
ŋagi ksi</w>
ŋ mun</w>
ŋ aan</w>
vi si</w>
uv apkun</w>
uq atigi
tau qsi
tain nain
t akku
suġ alli
rua tigun</w>
quyy avigi
qiḷaŋmiittu am</w>
piaġat aq</w>
niqi ksr
ni q</w>
naitchu amik</w>
n ŋa</w>
miu si</w>
ma ttu
m aqu
kk aġa</w>
kili ktu
kav si</w>
iḷ au
iġñi ŋa</w>
iñuu si
iv ḷuni</w>
isu maq
isivġi qsau
iluq aani</w>
aŋag alu
aŋa ruaq</w>
aqł i
aniŋ mata</w>
all anun</w>
aksr au
aitk aa</w>
ag uti
aaġ uti
a siñ
K iñ
B eth
ł i
ġi ñ</w>
vḷu ŋa</w>
umiali k</w>
uk sr
u ŋi
u iḷg
tuvaaq ati
sis ama
r i</w>
r aġ
qi ksi
pi iḷ
pi i
palauvaksr anik</w>
nalunaiñ ŋutch
n ut
mi sun</w>
ktu at</w>
kisi mi</w>
iviġauma gi
ika rr
g i</w>
aŋa ruk</w>
aġi kpiñ</w>
aġ aat</w>
ataniġnaq utiq
aqu lli
aqsiv ḷugich</w>
am nik</w>
aglausima ruq</w>
a iḷḷ
a itch
Naag g
Mordec ai</w>
M ak
Jerusalem- mi</w>
Israel-gu ruat</w>
Im naiyaa
Aasi uvva</w>
ŋitchu si</w>
ŋaitk aat</w>
ŋa iq
ŋ ni
v va</w>
uŋa si
uv agu
uqalu a</w>
uq tau
uq ausi
tax -
tavr aŋŋa</w>
t av
t aitchu
siq su
s atqu
ru ni</w>
qu l
qiñ iqtu
qai sau
piḷ ḷuat
piḷ ḷ
pa g
o th
nak u
n ŋarut</w>
n aŋi
m alu
l laa
k ługu</w>
k kich</w>
iñug ruiññ
itqaumayumiñ aiġ
isu n</w>
isivġi ġ
iniq paum</w>
ikipk ai
gaa tin</w>
aġ uq
ay uk
av ut</w>
ausi aq
aull aqłuni</w>
at pi
aqtu asii</w>
apiġi ŋagaa</w>
akunġ anni</w>
akun nav
ak tau
a suli</w>
N aa
John -lu</w>
Ili ŋisa</w>
B o
- mi
ŋi k
ŋag un</w>
ŋ iññun</w>
ł̣ utiŋ</w>
łu ta</w>
ä a</w>
yumiñ aiñ
uqaqti ŋisa</w>
uqalu ŋi</w>
u tuq
u kiu
tu iññ
tik iññ
ta mma
siv un
si laa
satqu mmi
s aniġ
qau mmaġi
piviuttaq sri
niġi u
niġ iḷ
niq si</w>
ni aġni
nagliksaaqti tau
mi ñiñ</w>
kk aŋi</w>
kiŋu ni
kivg aq</w>
kiv siŋa</w>
k uk
iḷiap pau
iłuaqsi rau
itquvlu gu</w>
ilitqusiqł̣ uq
aŋa tun</w>
aġu pta</w>
aġ miuq</w>
az ar
ar gu
aqtu allu</w>
aqtu agu
aki iḷ
ak iññ
T h
P aġl
N azar
Jo na
Iġñi ġi
A d
ḷ i
ł̣ł̣ uni</w>
łh aaq
ġi vsi</w>
ġi qsi
ġ uti
uvam niñ</w>
uqam aqłu
ul laa
uki ł̣h
tuqu ŋaruat</w>
tuq quti
tatavs aqtau
tat qi
tain n
t i</w>
t aġ
t aggi
su na</w>
qiññ aq
qaukłi ata</w>
q uv
puttuq sri
piḷuusiqi ri
pisu u
pisigi vlugich</w>
piq atau
paŋ ma
payaur aq</w>
p ai
nip t
nalliu mmati
maŋŋ uu
lu aġi
l gi
ksr i
k uv
iḷisaurr iḷḷu</w>
itchu at</w>
isi q
isaġul gum</w>
in na
iluq aa
ilaa niñ</w>
igu tch
gi tka</w>
g n
aŋan nun</w>
aŋaiyyuliqsiq paŋ
aŋa nnik</w>
aŋ ni</w>
aŋ iññ
aġna m</w>
ati in</w>
atautchi mik</w>
aqłu si</w>
aq sru
apiq sr
annuġ aaq
ani ŋaruq</w>
ak taa
a tuq
Taa m
Mar y</w>
Davi d-
Aapa ma</w>
A itchu
ŋiññ i</w>
ŋagi kput</w>
ŋa ni</w>
ŋa n</w>
uġ ni
un miglu</w>
ukpiġ naqsi
uk ki
u un
tusaayugaaġiksu amik</w>
tuq un
tu kku
tiglig ayuk
ti l
suġ al
su ll
siḷ alli
sivunni uġu
rua k</w>
quq uu
qiññ u
qiñ iġ
q iñi
piŋasu t</w>
pitqur aŋiñik</w>
pi m
nautchi rri
naur i
mma tiŋ
miŋ niñ</w>
mi kkun</w>
ktu q</w>
iḷumu tun</w>
iḷisima naqsi
iłuiḷḷiuġ utiq
iñug guti
iqsu q</w>
in ŋa
im nai
igḷu a</w>
gu llu</w>
e w
aŋiñ ñik</w>
aŋa yuq
aġlu ŋa</w>
ay y
auti laa
au l</w>
aquvlu gich</w>
aqsiv ḷugu</w>
aqp ata</w>
aq siññ
aptiŋ nik</w>
ak tun</w>
aitchuusi aġi
ai yug
ac o
T im
S il
S aul</w>
R ut
Paul -lu</w>
J aco
G r
Aasi ivsauq</w>
ŋitchu aq</w>
ŋaiñ ŋaan</w>
ŋagi vsi</w>
yumiñ aitchu
tu n
tchi aq</w>
tau q
tamatk un
tai mani
taggi siq
t al
ri a-
quvi atch
qu tchi
qi v
qi mi
qai ŋarut</w>
qa itqu
q allu
q aiñ
piqatigi vlugich</w>
pi aqłuk
pa iḷḷu</w>
pa gi
nip aal
nau vva</w>
na si</w>
n uv
miqłiqtu ġi
ll a
ksr aq</w>
ka su
itqaumayumiñaiġ ḷugich</w>
it qatigi
iniqpaŋ mun</w>
iliŋ nik</w>
i ma
gi tchi</w>
e de
aŋarraur amun</w>
aŋa ni</w>
aġlu tiŋ</w>
aġ itka</w>
auv va</w>
aquvlu gu</w>
aqtu akun</w>
ap tauq</w>
aa p
Uqallauti givsi</w>
U na</w>
P ap
Nazar eth
Nal aun
Jew-gu ruanun</w>
Gr ee
A tau
ḷ iq
ŋitchu at</w>
ŋa vlugu</w>
ŋa itki
ŋ iḷḷ
ġ mik</w>
ġ lugu</w>
yumiñ aitchuq</w>
vlu gulu</w>
vlu gik</w>
viŋ ñ
uumi ŋa</w>
uu ma
utaq qi
u ŋarut</w>
tuqu tch
tu piaġataq</w>
tilirau nikun</w>
tili r
suaŋŋa ti
su na
siv ḷuni</w>
si q</w>
rru si
qi vi
qi siq
qaunaksr i
puttuq sr
pk ai
pir aġ
pi gru
pa siñ
o ch
nun a
ni ġu
nagli gi
mun aqsr
miu ŋa</w>
malġu g
lu siḷu</w>
li v
kiŋu niġi
kikiaktu uti
kaŋiqsi ḷ
iḷḷ a
itquvlu gich</w>
iluq ata</w>
iluq ai
i ku
gi kk
gaa ŋa</w>
e d
ch i
aŋ u
aŋ itki
aġ uk
at qun
at aa
ani q
all aŋŋ
all ak
akunnav siññi</w>
aki ma
aił̣ł̣ utiŋ</w>
ab b
aasi isuli</w>
aa ŋ</w>
a ä
a iḷi
Tim oth
S ama
Qau nagi
N alli
Iḷ itch
A ŋu
ḷ utin</w>
ŋitki ga</w>
ŋitchu t</w>
ŋa ruamik</w>
ŋ mi</w>
ŋ man</w>
łh aa
ġ aqtu
v siññun</w>
uvlu pak</w>
ut qi
uqalu anik</w>
uq q
uq aŋarut</w>
ukpiġu tai
ukpiġ un
ukpiqtu aq</w>
uki uni</w>
tuŋ aanun</w>
tusaa kamirruŋ</w>
tu s</w>
tu lli</w>
tilaa ŋa</w>
ti glu</w>
tchu miñ
tai mani</w>
taavru muŋa</w>
taa l
t e
suaŋa siḷ
su guu
s- mi</w>
s aaqtu
quvia saa
qati q
pk aġ
piḷuut aitchu
p tigun</w>
nuk atpi
nasu galu
m maa
ktu aq</w>
kku siaq
kipiġni uġuti
k iñ
iñuŋ niñ</w>
iñuu siq
iñi aqtuq</w>
isumal luaġi
isumaa lu
isi laa
iqsi tch
i mma
g aur
e li
c i
aŋŋa tchiaq</w>
aŋaiyyuliqi ruanun</w>
aŋ uti
aġumiñ aqsi
aġlu tin</w>
aġ mata</w>
aun mik</w>
anu ġ
ami k
ak łuni</w>
ak s
aaq si
Uv aŋa
Tainna tun</w>
T i
S o
Pap tai
P iḷ
P isi
N an
Ki a</w>
Eli j
Christ -mik</w>
Atani pta</w>
Ag l
ŋitchu anik</w>
ŋik ta</w>
ł̣ł̣ utiŋ</w>
ġau m</w>
uu r
uq autch
ull akługu</w>
tuq .</w>
tivraġi ks
ti n
tai mña</w>
taa qtu
suna payaaq</w>
siġ ġaq
sivunni uġuti
siv sauq</w>
ruagu ut</w>
ru ur
qł utiŋ</w>
qti tchi
qau mma
qa iḷ
q aku
pkun ani</w>
pi ani
pasi rau
pa si</w>
pa ni
p q
p ka
niġ ġi
niġ mik</w>
niaġ aasi</w>
ni pau
nau ma
na yuq
na k</w>
n mik</w>
mi ḷ
ki l
kami gich</w>
kaman aqtuaq</w>
kama nau
k saa
iḷitchitqur aŋisa</w>
iḷisaurru tiŋ
iñ i</w>
iv aqłi
in ŋarut</w>
im na
iliv siññiñ</w>
i ł̣h
gi si</w>
g ni
aŋayuq aa
aŋalat aġi
aŋa niñ</w>
aŋa itchu
aŋ utit</w>
aġni q</w>
aġni aqtusi</w>
aġ li</w>
aurru siqi
au tau
atan ġiqsi
apiġi ŋagai</w>
akku miñ
aił̣ł̣ uni</w>
Umial gum</w>
Phili p</w>
Naa laġni
N ao
Iḷitch itqur
An ti
An n
ḷu siḷu</w>
ŋił̣ł̣u gich</w>
ŋagaa si</w>
łh am
ġna gu</w>
ġi ch</w>
yaqtu q
vḷu si</w>
vau na</w>
v siññi</w>
uti tigun</w>
umialiŋn allu</w>
tu pi
taimani gu</w>
tai muŋa</w>
taa nun</w>
t .</w>
suur amikunnii</w>
supayaa mik</w>
sumi kunnii</w>
sivuuġ agi
ququu l
qi mak
qai ruaq</w>
qaa ŋ
ptiŋ niñ</w>
piviuttaq qu
pigiitchu at</w>
pi ŋaruq</w>
nutau ruaq</w>
nipatu vluni</w>
niaġ aa</w>
n na</w>
miqłiqtu ur
ma tu
ma kua</w>
l ait
kł utiŋ</w>
ku miñ
it tin</w>
isi ŋaruq</w>
isaġuli k</w>
is aguti
ini mun</w>
im mu
ilaa gun</w>
i ŋ</w>
i ti
i ri
gu p
ed oni
e -mun</w>
aŋiñ un</w>
aŋaiyyuvikp aum</w>
aġu ma
aġu g
av luni</w>
auti q
aull aŋarut</w>
au ŋ</w>
atan ġ
ar ri
aqti ŋ</w>
aqti n
aq saa
apiġi vlugu</w>
ani qatigi
ani qat
ami ŋnik</w>
al laa
ak put</w>
ak iḷ
ai s
ac edoni
aan ŋa</w>
Uq alu
Tain n
Q uli
Nalupqi naitchuamik</w>
Mar y
M acedoni
Jude a-
Jose ph
Jam e
Iḷu mu
Ilitqusiġiksu amun</w>
I saa
C or
Aull aġiñ</w>
Al ġaqsru
Abraham -mun</w>
Aap a</w>
A ŋ
ḷ i</w>
ŋitk aa</w>
ŋa ruatun</w>
ŋ niñ</w>
ġu tau
y r
y asi
vḷu ta</w>
ur aa
uqalu ŋnik</w>
uq ł
uq aġni
unnu ami</w>
tutqi utiq
tusaa ruat</w>
tuq qu
tu llu</w>
tik tun</w>
t ki
t atchi
suk ługich</w>
siḷ ḷ
siġ ḷiġ
sav aŋa
sav akti
sav aaq
s aq
qł uk
quvlu gich</w>
qiḷ iqsru
qaŋa unnii</w>
qaukłi at</w>
qanu tu
qallu gaur
q put</w>
piḷuusiqi rau
piḷuksi suguu
piviuttaq sr
pisu utaa</w>
pigiitchu amik</w>
pi ġi
pi iḷḷi
phe su
paaq ł
p ug
p pi
nunaaq qiñ
nun au
niġ iñi
nipau qłuk
niaġ ai</w>
nalun ai
nalaunŋasi pkaqtau
nakuuru aliqi
nagli kkutiq
n nun</w>
mi ḷḷu</w>
me n</w>
makpiġ aat</w>
ku mman</w>
ksr amik</w>
kiŋuvaan nak
ki iñ
kan ŋu
iḷisaurri t</w>
iññ uk</w>
ittu si</w>
isi ġumiñ
iq ł
imiġ mik</w>
i uti
gi vut</w>
g ñ
g uq
aŋa ruat</w>
ałh iñ
aġna gu</w>
aġlu ta</w>
aġ niqsrau
aġ nik</w>
avilait qati
ati n
atautchi mi</w>
atausi q</w>
atanniqsimavi anun</w>
aqpi ch</w>
aq atigi
aniqati t</w>
am ma</w>
all i</w>
U kpiġ
Tuun ġaum</w>
Tavr ani
T igu
Sama ria-
Pharisee s-lu</w>
Mordec ai
L e
Jew -
Iñu payaaq</w>
Isu mmatigi
Isu mal
Is aġu
Is ai
Ilitqusiġiksu amik</w>
E phesu
Anti och
Aglaa ttauq</w>
A ġna
A r
A piġi
A men</w>
- mullu</w>
ŋitchu gut</w>
ŋisi gun</w>
ŋaitk aa</w>
ŋa ruanik</w>
ŋ un
łh aaġ
ġ vigi
uqall aŋa
unniqsuqłi i
umiaqpaur amun</w>
tuqu ŋaruq</w>
tu aġman</w>
tautu kti
tautu kamirruŋ</w>
tal uqsr
taavru mani</w>
siḷ ġiq
siv ḷugu</w>
sav aktu
salu mm
saa g
rua miñ</w>
rr a</w>
quviasaa ġusi
punni q</w>
pk aqługich</w>
piḷu un</w>
piiḷ aaġi
pi tqi
pi aqtuq</w>
patch is
pa gu</w>
nuv uy
niv li
ni ḷḷu</w>
ni ḷugu</w>
ni vḷugich</w>
nap aaq
nalunaiñ ŋ
na itchuq</w>
n ŋagaich</w>
miu gut</w>
miittu at</w>
mani ich</w>
m umi
kk aŋat</w>
kk a</w>
kav anau
ka pta</w>
iḷu gich</w>
iḷitchitqur aŋi</w>
iḷisima rusi</w>
iñuur aqp
itk aa</w>
iq alu
iniqpaŋ mi</w>
in miŋnik</w>
ik ł̣
iglu anun</w>
i ł̣
i k</w>
e h
aŋal atch
aŋaiyyuvi gi
aŋ ma
aġu si
aġmi glu</w>
ay aa
av siññun</w>
av lutiŋ</w>
av ig
au taa
atiq aqtuamun</w>
atanniqsima nni
at h
asugalu gu</w>
aqtu qtu
aqti t</w>
apiqsru qtu
aku llu</w>
aitchu atun</w>
Tuun ġ
Paul -gum</w>
P itqur
Ni ġi
M el
Iḷumu tupiaġataq</w>
Iḷ itchuġi
Ili v
I łu
I q
Hama n</w>
God-i gi
God- au
Esth er
Aŋaiyyu liqsiq
Aŋaiy y
Atan ġu
A qu
ŋił̣ł̣u si</w>
ŋa vluni</w>
ŋa kka
ñ a</w>
uvlu si</w>
uv li
uti vlugu</w>
uqalu gi
uq u
tusaa kamiuŋ</w>
tu av
tigu ŋagaa</w>
tigi k</w>
ti llu</w>
tav ruŋa</w>
takku anni</w>
taa qtitchi
taa ptu
suliqutigiŋa iqsau
suliqutigiŋa i
sivi su
si laaŋanik</w>
sav aat</w>
ri m</w>
qiñ iy
qiñiy un
qaġġi rri
q unmik</w>
q qaaq
q atau
q aaġ
pk unu
pisigi lugich</w>
piraksri ŋagai</w>
piqatigi vlugu</w>
pasi kk
palauvaksr at</w>
pa ma
p h</w>
nuli ani</w>
niqinaq i
ni aġmi
nalunaiñ ŋu
nagli gn
na y
n aqu
mmiu ŋa</w>
mmiu si</w>
mma gu</w>
miŋ ŋa
mau si</w>
liq su
li k</w>
kti tun</w>
kipiġni uġ
kati rru
kaman aqtuat</w>
kama saa
k iḷḷ
iḷu si</w>
iḷisima rugut</w>
iḷisima n
iññ iqsr
iñuur aqpaŋ
iñuu lluat
ir i</w>
ipi ġaqtu
im mi
iluqaiñ ñiñ</w>
igutch akti
i tilaaŋanik</w>
i ksu
gu pta</w>
gu ma</w>
gu k</w>
aŋiñ i</w>
aŋitchu si</w>
aŋan ni</w>
aŋaiyyuliqsiqpaŋ nun</w>
aŋaiyyuliqsiq paiḷḷu</w>
aŋa a</w>
aŋ ŋu
aŋ m
aġ mik</w>
avsaa ŋaruq</w>
aull aġni
ati tun</w>
asugalu si</w>
aqtu k</w>
aqtu ami</w>
aqti tau
anni si
aniqati i
allu at
all au
ai ł̣ł̣u
aglaa lli</w>
agl auti
aaqtu q</w>
a gich</w>
U kua</w>
Tautu k
Sil as-lu</w>
Q uy
Paġl a
P isu
N au
M iqł
M al
Jose ph</w>
Jame s-lu</w>
Iḷisima ruŋa</w>
Iḷ aŋich</w>
Hama n
Barnab as-lu</w>
Aa ŋ</w>
ŋaru anun</w>
ŋaiñ ŋa
ŋ iñiñ</w>
ġ miu
vlu giḷḷu</w>
vi anni</w>
uv siuŋ</w>
uv sigik</w>
uti ni</w>
uqalu ŋmik</w>
uqalu tka</w>
uqal uk
ukpiqtu ag
u ŋa</w>
u ruq</w>
tuyu ġmi
tuvaaq at
tig gu
ti tau
tavr aŋŋatchiaq</w>
tavr aasii</w>
tautu kka
tautu gu
tautu gi
taavru maŋŋa</w>
suġ ali
suu rut</w>
su mun</w>
siḷ iq
si t
sav aurr
quvlu gu</w>
ququ aŋa
qiv liq
qik sigi
qaiñi aqtuq</w>
q ali
piviksr aq</w>
pigi raksraġi
pi siuŋ</w>
p uu
p tun</w>
p aktu
on -lu</w>
nunagluktu ami</w>
nun amiñ</w>
niġ mi</w>
niqsu t</w>
niaġi ga</w>
ni à
napaaq siqi
nanġ ausiaq
maniŋ ñik</w>
ma mi
lu at
li ch</w>
l laan</w>
ku u
kk aqsi</w>
kikiaktu urrau
kan ŋun
kamana łhaaqtu
kamaksr iñi
ka ma</w>
k atch
iḷu ŋa</w>
iḷitch i
iḷ aa
iñugg utiq
iñu payaurat</w>
iñu ksraqtaa
it pan</w>
irru si
iq ł̣ugu</w>
iq ł̣ugich</w>
ipi qtu
iluq aġmiglu</w>
iluq aan</w>
gaa n</w>
ch ari
c u
aŋaiyyuvikpaŋ mun</w>
aŋa lu</w>
aŋa gun</w>
aġlu at
auti t</w>
atausi ullaa
atanniqsimma taa</w>
at an</w>
aquvlu si</w>
aqti llugich</w>
aqpi sa</w>
ani kamiuŋ</w>
al a
akiḷi usiaq
ak ł
ak ka
ak iḷḷi
aitchu ŋa</w>
aitchu amik</w>
aiq s
aa li
Ze chari
Uq auti
Tuq u
T ili
T allima
S atan</w>
Rome- miut</w>
Q aŋa
Peter -lu</w>
Paŋ ma
P iḷu
P iq
Mel chi
M at
K aŋ
Jud as</w>
Iḷisima rusi</w>
I ka
Her od-
D ama
Caesar e
A p
ŋiñ ñiñ</w>
ŋaitchu ŋa</w>
ŋa tilaaŋanik</w>
ŋa ruam</w>
ŋa mmiuq</w>
ġu mi</w>
ġu g
v iq
uyaġ aktun</w>
uti ŋaruq</w>
uti laaŋanik</w>
uqtu q</w>
uqaqsi taaqtitchi
uqaq taa</w>
uqaq atigi
uq łutiŋ</w>
uq aqtuq</w>
uq aqtuaq</w>
ull aŋagaat</w>
uku niŋa</w>
ukpiġ n
ukpiqtu anun</w>
ukpi ŋŋu
tuyu utit</w>
tuttuq łu
tu alu
tilaa ŋatun</w>
tik itchuq</w>
ti tun</w>
ti t
tautuk ługu</w>
taliqpi ata</w>
taa m
t akun
siḷ ivi
siḷ im
siñ ñi
ru s</w>
ru q.</w>
ru ksr
rraqsi ŋarut</w>
qi l
qauma n
qapiŋa isaa
qanu siḷim
qai yumaaqtu
q ł̣ugu</w>
q apiq
pug gu
pk aqługu</w>
pitqur atigun</w>
pi yumaaqtu
pi aniŋmata</w>
payaa ni</w>
niġrułłu um</w>
niġ mun</w>
niq tu
naŋ ittuat</w>
nanġ aqługu</w>
nagliktuutiq paq
naglik saa
naglign aqtigi
maq i
malġu kipi
ma niq
m auti
ll aa</w>
kuk iḷu
ksu anik</w>
ksu amun</w>
kisi an</w>
killu liqi
kil luq
ki utilaa
ki mulliqaa</w>
iḷuv siññi</w>
iḷ aur
iññ aq</w>
iñuŋ iñun</w>
iñugi apiaġat
iñu uvi
iñ ŋaruq</w>
ittu am</w>
it ku
isivġi qsi
isivġi i
isi tchi</w>
isi gun</w>
irru ti
iq s
iniq pak</w>
ilitqu tchi
ikł̣ igutchakti
igluq ati
i á
h uni</w>
gu pku</w>
gli ch</w>
aŋitchu t</w>
aŋaiyyu li
aŋ nun</w>
aġni vḷugu</w>
aġi lugu</w>
aġ niq
av si
atanaur aŋata</w>
at aani</w>
aquppi ruaq</w>
aqp auŋ</w>
aq ta</w>
aq i
aq a
ann au
aniŋ man</w>
am nun</w>
alġaqsru utau
aktu atun</w>
aktaa ġi
ak ul
a d
Pharis ee-
K iv
Iñugi aktuat</w>
Dama s
C ap
Bo az
Atan niqsi
Aapa mun</w>
A si
A quv
ŋaiġ ḷusi</w>
ŋaitchu t</w>
ŋagaa nŋa</w>
ŋa mmiut</w>
ġumiñ aqsi
ġu ma
ġaq tau
ġ itchi</w>
win e</w>
viŋ miñ</w>
uvlu k</w>
uvaŋa lu</w>
uqautch iñik</w>
uqalu ŋ
uqallauti ŋagaaŋa</w>
uqallak łutiŋ</w>
uqallak kumiñ
uqall avsaaŋaruq</w>
unniqsuqłi is
un aŋu
umialiŋn at</w>
umial gich</w>
umi aqpaŋ
tuvaaq asi
tu niqsi
tqu lugich</w>
tilaa q
tigutaa qt
ti tchi</w>
taġi um</w>
tax- iñik</w>
tatchi m</w>
tamatku alu</w>
tallima kipi
tainna tulli</w>
t ap
suġal iġ
suu ŋiḷ
su tigun</w>
si tqu
si gut</w>
sav ik
raksr au
r iq
qin nal
qaa ŋi
q su
pk aqtillugu</w>
piḷuuti ŋich</w>
piḷu un
pisu utigi
piraksri uti
pigiitchu anik</w>
piaġat aŋarut</w>
pi ksr
paŋma paŋ
payaa nun</w>
paptai qsi
p un
niġi ug
niqsu aq</w>
ni ŋa
ni m</w>
nalunaiñŋu tchi
nalliu mmatiŋ
naagg auvva</w>
mi ktun</w>
maa ni
liq si
kuv r
ktu ŋa</w>
ksrau ruq</w>
kpa si</w>
kp alli
kk aġmi
kiḷḷ iġ
kiv r
kaŋiqsi pk
kasima ruat</w>
kap tigu</w>
kami sigik</w>
kak akti
kak ak
iḷitchitqur aniḷu</w>
iḷisaurru tigi
iḷaŋ iuti
iḷ aŋata</w>
ił̣ aa
iñuut qu
iñug gu
iñu un
iv ḷutiŋ</w>
itqi gñi
isu maaġ
ili ŋik</w>
ig lu</w>
aŋuy au
aŋuy ak
aŋal an
aŋa n</w>
ałh aaġ
aġi ksi</w>
aġ uġ
av siññiñ</w>
av lugu</w>
av iksi
av ati
ati k</w>
annaur ri
ani k
ami glu</w>
am mi
aliuġn aqtuat</w>
al gi
aki iḷi
aitchu at</w>
aiq su
ai ŋaruq</w>
ah -
ag nik</w>
ag g
aaq ługu</w>
aa mik</w>
Uq avig
Tu yu
Taa pku
S te
S atan
Rut h</w>
Qanu ġ
P er
Nau mi</w>
Le vi
Jew-gu ruallu</w>
Jew s</w>
Jaco b
Israe l</w>
Imnaiyaa m</w>
I n
Gree k
C ai
Atani qput</w>
A k
00 0
ŋisu n</w>
ŋatilaa mnik</w>
ŋaitk alu
ġ lugich</w>
ġ alu
yumau si</w>
yu maa
wine- mik</w>
vlu tin</w>
v sigun</w>
v sauq</w>
uv l
uv a</w>
uuktu unmik</w>
utiq paq
uqaqsi taaġ
uqallaktu amik</w>
uqal uq
uq tuq
uq s
uq aŋa
un ani</w>
u ŋaruq</w>
tuyu uti
tu gli
tk aa</w>
tiggu ġlu
tch uu
tautu ŋagaa</w>
tamatkun aŋŋa</w>
tainnain man</w>
tai rau
t alu
su mulliqaa</w>
su ama
sivunniuġ un</w>
si iġñi
si alu
s h
s ausi
ruiññ aq</w>
rua mi</w>
qiḷ ak</w>
qivliq tu
qi ru
qi ki
qai vḷutiŋ</w>
qai ruat</w>
q un</w>
piḷu unmun</w>
pim aqłuk
pi ruksrau
pi qati
pi pk
pi iġ
paŋa ni</w>
pay ari
palauvaksr aġi
nutau ruamik</w>
nunaaqqiñ un</w>
niġiu gi
niaġi ksi</w>
nau m
nalunaiñŋutch iqsau
nalunaiñŋ ut
n ŋagai</w>
n ŋagaa</w>
n na
mali ksu
makpiġ aa
m niñ</w>
ksrauti q
ksrau n</w>
kiñ apayaaq</w>
kivg aŋa</w>
kap kich</w>
kamagi lugich</w>
k akiḷḷ
iḷitchuġi kami</w>
iḷ iñi
iłu aqsru
iñu ktitun</w>
iy aqtu
itch aksr
is ai
iqsi ma
iq ł̣u
iq uvlugich</w>
iluq aiññ
iliv siññi</w>
ikipk autinik</w>
ik uv
igi tau
i kp
guv lu</w>
gi tin</w>
g uvich</w>
er naum
e -gum</w>
aŋ igun</w>
aġni aġ
aġ ma</w>
aullaq isaa
aull ati
aull arri
aul laa
atu nim</w>
ati ksr
ataniġ naqu
arr iq
aquv atigun</w>
aqtu n</w>
aqtilaa ŋa</w>
aqtilaa vsiññik</w>
aqti t
aqsiv ḷuni</w>
aqsi uŋ</w>
aqsi gik</w>
aqpa g
aq uvi
aq sri
aq ami
apquti nun</w>
ani qan
ami ḷu</w>
ama rra</w>
am u
alġaqsru iñi
all asi
aiq ł̣ugich</w>
aimaaġ vi
ai qsi
ai k</w>
a- lu</w>
a tuqtu
a siḷiq
a ruaq</w>
a gu</w>
Uv laa
Umiali k</w>
Ukpiġ utiq
Timoth y
Sivu lli
Quli aqtu
Qaunagi sitchi</w>
Q aġ
Mordecai -m</w>
Miqł iqtu
L y
I siv
H e
F es
Damas cu
Cap ernaum
Ann aurri
-mi u</w>
ḷiq aa</w>
ḷ utiglu</w>
ŋiñ i</w>
ŋa unnii</w>
ŋa iġñi
łu gik</w>
ġu ŋ</w>
ġi vlugu</w>
ñi ksr
z ede
y uk
viŋ miñun</w>
uyaġ ak</w>
uvlu tuaġman</w>
uvlu ta</w>
uumigi ri
uu mani</w>
uu ma</w>
utiq aqtusi</w>
uti llu</w>
uqti tau
uqauti q
uqaq taata</w>
uq autchi
un miñik</w>
umial ig
umial guti
ul ġu
ukpi qsi
u taanik</w>
u s-lu</w>
tusaayugaaġiksu at</w>
tuqu ġ
tk u</w>
til iñi
tigu si
tautu ŋagaat</w>
tautu kamiuŋ</w>
taa v
suġau tch
sumi ḷiqaa</w>
sull iñi
siḷġiq su
sivuniġi vlugu</w>
sit quq
si ŋñ
saniġ aani</w>
sal aich</w>
s aġni
ru aġlu</w>
rraqsi ŋagai</w>
rr i</w>
rau ruasii</w>
r d
quyy atigi
qin nau
qatiqtu anik</w>
qapiŋais aaq
qanuq itilaa
pitqi ksi
pisu uti
pi iġñi
paŋ nik</w>
pasiñ aġumiñ
paaq saa
p pa
niġrułłu k</w>
niġi uktu
niġi qatigi
niq ł
nip i</w>
nimiġi aqłu
niaġi vsi</w>
niaġ itka</w>
ni aŋitchuq</w>
nalaunŋaru aliqi
nalaunŋa ruat</w>
naglik tau
naglik saaqtu
naa l
mmaġi ksi
miqłiqtu q</w>
mi ki
mau t</w>
mau q</w>
maniŋ miñ</w>
maa ni</w>
liq aa</w>
laa gu
l aiñ
ksraq si</w>
kiŋuvaannak taa
kiŋ un
kivg at</w>
kisi anik</w>
ki p
ki ik
kaŋiqsiñ aiñ
kati nŋarut</w>
kan ġaqsru
k ł̣uni</w>
k itchu
k ali
iḷisima ruq</w>
iñuuraqpaŋ nun</w>
iñugiapiaġat aqtuat</w>
iñ ñiñ</w>
ittu anun</w>
ittu amun</w>
itchu ŋa</w>
isi gi
im ña</w>
ikuv ġ
igluq pi
ig alu
i ruaq</w>
guti laa
g li</w>
g aqsi
e m</w>
aŋitchu ŋa</w>
aŋal alluat
aŋ un</w>
aġu p
aġni aqtut</w>
az a
av ich</w>
au q</w>
atausi u
atanġ ata</w>
aqtilaa ŋannik</w>
aqpi k</w>
aq qu
anniqsu usiaq
anau mi
an nik</w>
all aniñ</w>
all allu</w>
all a</w>
aliuġn aqtuamik</w>
ali uti
al uni</w>
al uk
akuqtu i
ak kaŋ
aitk alu
aglausima ruat</w>
aaq atigi
a s-mik</w>
Ze b
U ll
Tuunġ aq</w>
Tavr aŋŋaaglaan</w>
Tavr auvvaa</w>
S un
S aglu
Quy y
Quviasu glich</w>
Pi raksr
Nao mi
Nagli ktu
N iq
Melchi zede
M ali
L aza
Jona h
Jo rd
Jerusalem- miñ</w>
Iq siñ
Ig ḷu
Esther -m</w>
Agl ausima
Ad am</w>
Aap aaŋ</w>
- suli</w>
- miu
ḷu giḷḷu</w>
ŋŋu aqtuat</w>
ŋitki vsi</w>
ŋa niġ
ġñ i</w>
ġuk ługu</w>
ġi si
ġaqtau li</w>
ġ utiq
ġ uq
ġ ma</w>
ñ qaŋa</w>
y l
viŋñ i</w>
viŋ mu
vi uŋ</w>
v u
uŋi arr
uvaŋa ptauq</w>
uv uŋa</w>
uv lu</w>
utuq qau
uti vlugich</w>
ut ku
usi r
ur aq</w>
uqallauti ŋagik</w>
uqallaktu q</w>
uq aŋaruq</w>
unniqsuqłiis aa</w>
ukpiġ naqtu
ukpili ŋarut</w>
tus agg
tusagg atiksr
tuqutch ukługu</w>
tuav aall
timi q
tilaa ŋannik</w>
tikiñ ŋarut</w>
tikiñ ŋaruq</w>
tigutaaqtau ŋaiqsi
ti ksr
tchu q</w>
tch iñi
taŋŋ iqsi
tautu ŋa
tatavs ausi
tat qiñ
tatqiñ i</w>
tai rru
taggisiq aqtuaq</w>
taa qsi
taa niñ</w>
t quti
suġau tt
sumi payaaq</w>
suaŋŋa siq
siġġaq i
sivunniuġu taa</w>
sisama t</w>
si ŋaiy
si qu
si n</w>
savaa ŋi</w>
salap q
sal u</w>
qu y
qq aaġ
qiññu aqtu
qisiq siuti
qin n
qi tiq
qanuġ lugu</w>
qai s
qai gumi</w>
q tilaa
q all
pq aur
pk aġumiñ
piḷuuti vut</w>
piŋa r
pigiitchu aliqi
pi tu
pi si</w>
paġl ag
nut q
nu tch
niġruti t</w>
niq tun</w>
ni ḷugich</w>
ni g
naŋi rruti
nautchiaksr atun</w>
nautchi aqaġvi
nalupqi gi
nagliktuutiq paŋa
mal luat
maki łłuni</w>
m ma</w>
liq si</w>
kk ani</w>
kiḷḷiġ ru
kivg ani</w>
killuq sr
kiik aa</w>
ki su
ki g
katirru siqi
kat aŋarut</w>
kaman aġniqsrau
kaman aqtuamik</w>
kamagi vlugich</w>
k saaq
iḷ ḷuat
iḷ utiŋ</w>
iḷ aksi
iłuiḷḷi uġuti
iġġi mun</w>
iġñ iq
iñugiak tilaa
iñu kpalli
iñu iḷḷu</w>
iñu ił̣aa
iñu iññaq</w>
ittu anik</w>
itchu anik</w>
isi ġni
iq aġi
iniqpaŋ miñ</w>
in ŋitchuanik</w>
imna iḷ
imi ŋa
iluq aanik</w>
igniġ mun</w>
ig l
g nun</w>
e- m</w>
aŋaiyyuliqi ru
aŋaiyyu yaqtu
aŋ iññun</w>
aġvi gi
aġni vḷugich</w>
aġna k</w>
aġna gich</w>
aġi kput</w>
aġ matun</w>
av lu</w>
aull aqłutiŋ</w>
au siq
atiq aqtuamik</w>
ataniġnaq uti
asu gi
aqłu niḷu</w>
aquppiut aŋisa</w>
aqtilaa mnik</w>
apiġi pi
ani kamiŋ</w>
ani aqtut</w>
an niñ</w>
amik -unnii</w>
alli ġman</w>
allak aaġi
al uktu
akunġ annun</w>
akti tau
ak uqtuq
aiyug aaqtau
aitchuutigi ŋagaa</w>
aitchuutigi nni
aitch uq
agi ñ</w>
ag aa</w>
aan nun</w>
a .</w>
Umial g
U ti
U n
Taavru muuna</w>
Taavru mani</w>
Su s
S aul
Q ul
Pi ŋa
Mar th
Kiv g
Kama gi
Jew-guŋitchu allu</w>
Isaġu l
Isaa c
Haman -gum</w>
Esth er</w>
Christ-gu ruaq</w>
Boaz -gum</w>
Aġna q</w>
Atau si
Ataniġ mik</w>
A piq
ŋŋ uġuti
ŋiḷ u</w>
ŋis alu</w>
ŋaitchu anik</w>
ŋ igun</w>
ł łutiŋ</w>
ġ ḷutiŋ</w>
ġ mun</w>
ġ miut</w>
ñi aqtuq</w>
yumiñaqsi ḷusi</w>
vḷu niḷu</w>
vlu tik</w>
viŋ mik</w>
v siññiñ</w>
v iḷi
uyaġ aŋnik</w>
uv ut</w>
uv ani</w>
urr iq
uqtu at</w>
uqallauti gaa</w>
uqallaktu aq</w>
unniqsuqłiisi gi
unaŋu iqsi
ukpiŋaitchu at</w>
ukpiliq si
u siq
u liq
tuvr aġlugu</w>
tuvaaqati ni
tutqi unmiglu</w>
tuquŋa ruatun</w>
tuq uvluni</w>
tuq unni
tukku li
tu ġ
ttu at</w>
tquvlu tiŋ</w>
tquvlu ta</w>
tqu lugu</w>
tqi ŋaruq</w>
timi si</w>
timi m</w>
tikiñ man</w>
tigligayuk ti
tch aiḷi
taŋŋi utau
taŋ iġ
tautu llasi
tat av
tamatkunu una</w>
tam aani</w>
taapku niŋa</w>
taa tun</w>
t tai
t asu
suksraunġi ġñi
suaŋŋa taagun</w>
suaŋŋa taa</w>
siḷ i
sivuniq aqtuq</w>
sivun m
sivi kitchu
siiġñ aqaġvi
si k</w>
s aġat
ru ali
quvlu si</w>
ququ aŋagai</w>
quliaqtuaġuti ŋagai</w>
quliaqtu aq
quli ŋŋuġuti
qiñ iq
qiki qt
qi tun
qanutu payauraq</w>
qaku gu
q ługich</w>
q łu
pu uk
piḷuuti t</w>
piḷuuti si</w>
piḷ ai
piññ aktaaġi
pisigi luŋa</w>
piraksri iŋaruq</w>
piqatigi lugich</w>
piqa siuti
pi aġ
patch isau
pa tin</w>
pa t</w>
p uk
p aŋa</w>
o ll
nu ll
niġ miñ</w>
niqinaq ivi
niqi nik</w>
nipauqłuk tau
niaq uġ
naŋi rru
nautchiaksr at</w>
nalupqi naitchuq</w>
nalaunŋa ruamik</w>
naa q</w>
mma a</w>
miŋŋa qtau
miqłiqtu tun</w>
maŋŋuq aqtuat</w>
mayu urrau
ma kk
ma gu</w>
lu giḷḷu</w>
l om
kku si
kka si</w>
kiŋuvaan n
kivg aġi
ki pagi
kaviqsu amiñ</w>
kav siuŋ</w>
kati ti
kamanaqsi pkaqtau
kamana łhaaqtuq</w>
kaa ksi
iḷḷ ati
iḷi vḷugu</w>
iḷ ġat
iḷ asi</w>
iñuuni aġniġ
iñuu ruksrau
iñ asi</w>
iviġau mmatigi
itchu t</w>
itch utin</w>
itch auq</w>
it quti
isuma kkusiaq
isu maaq
isai mmaa</w>
ini ksr
in niġ
in ni
im naiyaa
iluqai sigun</w>
ili ŋikta</w>
ili pkun</w>
i ŋiḷ
i rr
i ni</w>
i g</w>
guv siuŋ</w>
guv sigik</w>
guti laaŋanik</w>
g aksraġi
f ig</w>
er x
d r
aŋal atchi
aŋaiyyuvik pak</w>
aŋ iñiñ</w>
aġvi ksr
aġu ma</w>
aġi vlugu</w>
aġi u
ay aqtuq</w>
aurru ti
atuqtu ur
atu llu</w>
atanniqsimavi ani</w>
ataniġnaq usir
asu g
arg ag
aqł utin</w>
aqu lugich</w>
aqsiv ḷutiŋ</w>
aqpi si</w>
aqh uni</w>
aq pak</w>
aq amiŋ</w>
ap h
annau n</w>
aniqat aa</w>
ani ŋa
ani kami</w>
alġaqsru itquvlu
alu k</w>
allaŋŋ uqtau
all aġmi</w>
all amun</w>
ali urr
ali asu
akiḷi usiaksr
ak łutiŋ</w>
ak ki
ak imi
aiġ uti
aitk aat</w>
aglaa llu</w>
ad d
ab yl
aaġ utiq
aasi uvva</w>
aa ġu
aa gu
a s-
X erx
Uv vauna</w>
Uv v
T utqi
S umi
Quyy avigi
Pisi givlugu</w>
Paptai qsi</w>
Nan ġ
Naag ga</w>
Mak ittin</w>
Macedoni a-
Kaŋ iqsi
K isi
Jona h</w>
Jesu s-lu</w>
Jesu s-kun</w>
Jesu s-
It qauma
Galilee- miñ</w>
David- mun</w>
B abyl
Aŋu y
Ap oll
All alli</w>
A ŋa
A ġ
A b
ŋag aik</w>
ŋa va</w>
ŋa ruamun</w>
ŋa iqsu
łh aaq</w>
ġna gich</w>
ġi m</w>
ġ aan</w>
ġ aa</w>
z ab
yumiñ aqtuamik</w>
yumiñ aiññi
vi ŋa</w>
uŋi ar
uġ lu</w>
uyaġ aŋ
uvlaa kumman</w>
uv iq
uumi kł
uuktu utitigun</w>
uu mmati
uti ni
usi aqp
uqalu ŋiñik</w>
uqallausiġi ŋagaa</w>
uqall ag
uq sru
uq aġuu
uq arraqsi
un un</w>
un .</w>
ullauti ŋarut</w>
ull aŋagaa</w>
ukpiġu rri</w>
ukpiqtuagu ruat</w>
ukpiqtuag uq
ukpi q
uk ka
uiḷg aŋa
u taagun</w>
u ruat</w>
u mma
tut quq
tusaggatiksr aŋnik</w>
tusaa ŋaruŋa</w>
tusaa kami</w>
tk alu
tiv vu
tili ŋagaa</w>
tigu llu</w>
ti tchi
tch aur
taŋŋ iġñi
taġiu mun</w>
tautu ŋagiga</w>
tautu ŋagai</w>
tautu kk
tatav sau
takun n
tainn atch
taapku ak</w>
taal anik</w>
taa mani</w>
t ku
t ak
su payaurat</w>
su miñ</w>
sivuġaa nnun</w>
sivuniq aqtuaq</w>
sivulli q</w>
siiġñ aqaġ
si mm
sav ikp
sav aurri
s t
s -gum</w>
rua niglu</w>
ru aŋaa</w>
ri nun</w>
qul aurrusiqi
qiḷaŋmiittu aq</w>
qiñiqtu uraa
qivliqtu atun</w>
qisiq si
qil amik</w>
qau mmati
q ł̣ugich</w>
q am
q ak
punni ġmik</w>
pk aŋagaa</w>
piḷḷ atu
piḷġusi ġi
piḷuusiqi rit</w>
piḷuktu at</w>
piŋayu aŋni</w>
pitqur ri
pisi vlugu</w>
pi ŋarut</w>
pi qtu
pi l
pi igu
pi avs
phe n</w>
paŋ mik</w>
pak tun</w>
nunaaqqi mun</w>
nun aq
nu k</w>
nni i</w>
niġ mata</w>
nipi mik</w>
nip aall
niaġ miuq</w>
niaġ alu
ni ŋ
ni u
nautchi aqaġ
nap p
nanġ aŋagaat</w>
nalun aiqs
nalaunŋa ruaq</w>
nalaun ŋaruq</w>
nagliktuutiqpaŋa gun</w>
nagliksaaqti rrusi
nag ru
n uġ
n utim</w>
n eli
mmaġi ksaa
miqł iqsi
miittu anun</w>
mattu mani</w>
mani mmi
malġu ŋnik</w>
mali ŋagaat</w>
m aġi
llu si</w>
ll atu
li ġ
l eh
l aitchuq</w>
l aitchu
ksrauti laa
ksr anik</w>
kpi ch</w>
kpa gu</w>
kk aqput</w>
kivg am</w>
kiv ri
kisi ŋŋuq
ki mun</w>
kaŋ iq
katitchi rit</w>
kanŋu gi
kakiḷḷ aġn
kak aksi
ka pku</w>
k saaġ
iḷuv iq
iḷitchitqur anun</w>
iḷitchitqur amiñun</w>
iḷis aġi
iḷ uni</w>
iŋiḷ ġaan</w>
iġ ḷugu</w>
iñuŋ ni</w>
iñuulluat aġni
iñuu ruq</w>
iñuu ruaq</w>
iñugi aksi
iñu llu</w>
iñiġ mik</w>
iñ ŋa
isu kł
ir iqsima
in migun</w>
in mi
iluqaiññ i</w>
iluqai salu</w>
iluqaa niḷu</w>
il lutin</w>
ikarr aġmi</w>
igḷutu uti
iglu mun</w>
iglu mi</w>
i piaġat
god- i
ew -lu</w>
et h</w>
ee -mun</w>
e b
aŋŋ aan</w>
aŋaiyyuliqsiq pau
aŋaiyy utigi
aŋa rugut</w>
aŋa itchuq</w>
aŋ iḷḷu</w>
aġu miŋ</w>
aġni ŋa</w>
aġn ani</w>
aġn allu</w>
aġma gu</w>
aġl aq
aġi si</w>
aġ ruk</w>
aġ aatin</w>
av v
av sigun</w>
av at
aul ayy
au ruq</w>
au ruaq</w>
asu ŋa
aqup taa
aqtu iññ
aqpa t</w>
aniqati ni</w>
ani ñi
ani tt
ani g
am ullu</w>
allatuq tau
all aŋŋu
al ig
akuqtu ġn
akk aġa</w>
ak ługich</w>
ak uu
ak kich</w>
aiyug aaq
aitchuutigi vlugu</w>
ai r
ag aksraġi
aaqtu at</w>
aa pau
a payaur
a iḷḷu</w>
Zeb ede
Tavrani asii</w>
Tavr aptauq</w>
Tautuk siuŋ</w>
Tallima t</w>
Tain nain
T uv
T r
T ik
T ig
Ste phen</w>
S h
Qul aurrusiqi
Pivi utt
Pilat e-gum</w>
P u
O liv
Niq in
Nazareth -miu</w>
Naagg aunnii</w>
Mat th
Levi -m</w>
Laza rus</w>
Jude a-mi</w>
Jord an</w>
Jo ppa
Jew-gu ruatun</w>
Jerusal em</w>
Iḷitchitqur at</w>
Iḷ aanni</w>
Iġñi ŋan</w>
It q
Isiv ġi
Isai ah-m</w>
I mi
Galil ee-mun</w>
Eli zab
Cor neli
Caesar -mun</w>
Beth leh
Bar abb
Aŋaiyyuliqsiq paich</w>
An dr
Ag ri
1 2</w>
- nik</w>
- guvlu</w>
- aasii</w>
ḷ utik</w>
ŋiḷ ḷugich</w>
ŋiñ mi
ŋit ku
ŋisu aġuvsi</w>
ŋi ł̣ł̣uni</w>
ŋakk aŋa</w>
ŋaitk aich</w>
ŋaitchu at</w>
ŋagalu aqtuq</w>
ŋa vlutiŋ</w>
ŋa is
ł̣h aaġ
ł utin</w>
yumiñaitchu si</w>
yumiñ aġalu
yumiñ aqsivḷugu</w>
yumiñ aipi
yaqtuq ługu</w>
vru mani</w>
vlu siḷu</w>
viŋñ un</w>
vau ŋ</w>
uġ niġ
uvlu ani</w>
uvagu ttauq</w>
uv siŋa</w>
uv saa
uv isi
uuktu un</w>
utku si
utiq s
utigi vlugu</w>
uti ŋagaa</w>
uti kun</w>
uqaluk sri
uqallauti gikpiñ</w>
uq ausiġi
uq aqtuat</w>
uq aqtu
unniqsuqłi isau
ullauti ŋaruq</w>
ukpiqtu aġu
ukpi qti
ukk alu
uki ut</w>
uk ługich</w>
u c
tuvr aqługu</w>
tusaa ŋagaat</w>
tuqu tchi
tu p
ttu q</w>
tilisi ŋaruq</w>
tilisi ruam</w>
tik itchu
tigu k</w>
tchi ġi
taŋŋ iqsau
tau ŋarut</w>
tamat ki
tam m
tainn atchi
taa pkunu
ta si
suŋa ġnagu</w>
suur amik-unnii</w>
suliq utigi
sug ru
suaŋŋa si
su ŋ
su kkalu
su a
siḷ ataani</w>
siḷ ami</w>
sivuġaa nni</w>
sivunni ŋaruq</w>
siv ḷutiŋ</w>
siv saa
siq ł̣u
siq iñiq</w>
sav aq
sagluqi nni
saglu tigi
s aqługu</w>
s an
rraqsi ŋaruq</w>
rau niaqtuq</w>
qul vi
qu lliq
qiñi llasi
qiksi ksrautiq
qauman ġ
qauma niq
qaukłi u
qaiñi aqtut</w>
qaisau ruat</w>
qai vḷuni</w>
qai kpan</w>
q qaa
pu tu
piḷuusiqi ug
piḷuksi pk
piḷ i
pisu qtilaa
pisigi k</w>
pisaa ŋa
piq aqtuksrau
pigi ił̣h
pi ŋa</w>
pi ġni
pi ġ
pi llu
paŋa nun</w>
pa ti
p uvl
p pa</w>
o ma
nuġ ġ
nniaġ aasi</w>
niġi pk
niġi iḷḷ
ni at
ni aqtutin</w>
naġ ġu
nautchiaksr anik</w>
nalupqinai qł̣ugu</w>
nalaunŋa siñi
naku aġi
naglignaqtigi rusi</w>
naama si
naalaġni siŋa</w>
naa tchi
n ŋagaat</w>
n uq
n aich</w>
n aaq
munaqsr ich</w>
mun aqsri
mun aglaan</w>
mu ŋaruq</w>
miqłiqtu t</w>
mani ur
malġug ni</w>
makita ruat</w>
ma rruŋ</w>
kuk iḷ
ksu at</w>
ksr aŋanik</w>
kka n</w>
kiu gaa</w>
kip uqł
kiiñ aŋa</w>
ki ŋi
ki ñ</w>
ki n
ki iqsi
kav ich</w>
kati tch
kamasu ut
kamanaqsi ḷ
kaman aqtuam</w>
kaman aqtu
kama nai
kakakti m</w>
k łuni</w>
k allu
iḷḷ i</w>
iḷisima ruŋa</w>
iḷisaurri vḷuni</w>
iḷaŋ iññik</w>
iłuaqsi r
iġ uti
iñuŋ miñ</w>
iñuusi ġi
iñuu niqtu
iñuu niaqtuq</w>
iñugiaktu ani</w>
iñugiak tigi
iñu uqatigi
itqaumayumiñ aiqł̣ugich</w>
it titchi</w>
it pata</w>
it pa</w>
isumalluaġi itchu
isu mmi
isu ani
isuani ñqaŋa</w>
isivġiġ vium</w>
ir vi
ir iq
iqi ri
iq ł̣uni</w>
in th
in e
ine v
im naich</w>
im aaŋ</w>
iluq ani</w>
iliŋ iññik</w>
il vich</w>
iku ala
ika mi</w>
igniġ mik</w>
iglu ani</w>
i ŋarut</w>
guu q</w>
god- ili
e s-
e ph
d o
ci a-
c o
br ew
aŋuyak tiŋ
aŋiñ ñiñ</w>
aŋitchu at</w>
aŋarraur ami</w>
aŋaiyyu ŋaruq</w>
aŋ itk
aġu ŋ</w>
aġni aqtuŋa</w>
aġna mun</w>
aġi lugich</w>
aġat aviksi
aġ nun</w>
aġ mun</w>
aġ aatigut</w>
av siuŋ</w>
aull aġ
atq agun</w>
atq a</w>
atin ġi
atausi ur
atau tch
atanġiqsi tau
atanaur aŋat</w>
at tauq</w>
at t
asugalu gich</w>
as h
aqtu q.</w>
aqtu aniñ</w>
aqtilaa ġnik</w>
aqti tchi
aqti nni
aqti lli
aqsi mman</w>
aqh i
aq ami</w>
apiq qunmik</w>
apiaġat aq</w>
api ġ
anniqsu qs
alla suli</w>
all aġmiŋ</w>
aliq ini
ali uŋarut</w>
al aitchuaq</w>
aksr i
aksi u
akk aŋa</w>
akisu ruanik</w>
ak t
aitchu utaa</w>
aitchu ani</w>
add uc
aa lu
aa llu
aa k</w>
a- mik</w>
a łhaaqtu
a z</w>
a miñi</w>
a miuŋ</w>
V ash
Uvlu t</w>
Tutqi utiq
Th oma
Tamat ku
Tai gu
Taam nau
T yr
Si utiqaqtusi</w>
Savaiññi ġmi</w>
S uġ
S iġ
S ivi
S adduc
Rut h
Qanuq łuni</w>
Q a
Piviuttaġi rauruasii</w>
Pitqur at</w>
Paŋma pak
Nal un
N o
N inev
Melchizede k
M ag
Ki piġni
Jam es</w>
Jaco b</w>
Iġñi q</w>
Iġñi ni</w>
Israel-gu ruanun</w>
Iliv sivsauq</w>
He brew
God-i tun</w>
Fes tus</w>
Elij ah</w>
Cor inth
Christ- miñ</w>
Christ -gum</w>
Bo az</w>
Bethleh em
Beth an
Aŋu un</w>
Aŋa l
Atanniqsi mma
Asi a-m</w>
Apoll o
An ani
Aglausima ruq</w>
Aap avsi</w>
Aa pau
A vi
A ki
- ḷi</w>
- miut</w>
ḷu niḷu</w>
ŋñ i</w>
ŋiñ miuq</w>
ŋitk aat</w>
ŋaiġ ḷugu</w>
ŋait kai</w>
ŋa mma
łham aaqtu
ġñi aqtut</w>
ġ vi
ġ mata</w>
ġ li
ġ ai
à u
yumiñ aqtuq</w>
yumiñ aqsivḷugich</w>
yumiñ aitki
yumau t</w>
yuma gi
yuk ł
vsaa ŋagai</w>
uvagu llu</w>
uv siññi</w>
uuma ruat</w>
uti ŋarut</w>
ur aaq
uqaqti ŋi</w>
uqaqsitaaqtitchi rit</w>
uqallauti vlugik</w>
uqallau taa</w>
uqall aŋ
uq łuni</w>
uq aġlaq
uq aqtut</w>
unniqsuqłiisi ni</w>
un aglaan</w>
umialiŋ na
umi aliq
ukpiġun miŋni</w>
ukpiqtu anik</w>
ukpiliq su
uiḷg aŋaruaq</w>
ui ksrauti
u ġi
u ruŋa</w>
u piaġat
u m
u laa
u igu
tuŋ aani</w>
tuŋ aa
tuvr aa
tus aġn
tuqu ŋarut</w>
tuqu ruksrau
tuq qutau
tu y
tiŋ in
tiŋ il
timi ga</w>
tilirau ruat</w>
tili ŋagai</w>
tilaa ptiŋnik</w>
tig lu
ti vlu
tchi mik</w>
tautu ŋaruŋa</w>
tautu kku
tautu aġi
tauq siq
taaptu muuna</w>
taa tigun</w>
taa pkun
t ati
t aksr
suu ruat</w>
su m</w>
siv uqq
si sun</w>
sav ak
salapqi ŋaruq</w>
saaq si
saa ll
s ay
s aqł
rua g
ru ġlu</w>
ru llu</w>
rru tigi
rru siq
rr iq
quliaqtu aġ
quli nik</w>
qu pil
qsi uŋ</w>
qiḷ aum</w>
qitiq q
qimi alu
qaumma tau
qanusi payaat</w>
qall iḷ
qaku gu</w>
qai yasi
qaaŋi ulaa
qaaq ługu</w>
qaaq ługich</w>
q utiq
punni ġich</w>
pk aŋagai</w>
pk aŋa
pk aġnasi</w>
piḷġusi kaa
piviuttaqsri ruaq</w>
pitqur ani</w>
pisu kk
piraġ autch
piraġ ausi
piqatigi lugu</w>
piaqłuk tau
pi y
pi s
paŋ mi</w>
paġl ati
paq it
paq i
pa gich</w>
p tiktun</w>
p an
p aił̣ł̣utiŋ</w>
o t
nunagluktu amun</w>
nunaaq q
nun amik</w>
nun alu</w>
nun agi
niġruti nik</w>
niġ man</w>
niviaqsi aq</w>
niv ḷutiŋ</w>
niq put</w>
nipatu sivḷuni</w>
nip ai
nik atch
niaġi kpiñ</w>
niaġ aich</w>
niaq q
ni aqtuŋa</w>
ni aqtilaa
napaaqtu m</w>
napaaqsiqi rinun</w>
nalupqinai ġ
nalun autchi
nai piqtu
nagliksaaġ utiq
naglikkutiq paq
muk s
mmi gaa</w>
mma n
miḷ ḷu
miñ qaŋa</w>
mi itchu
mi gich</w>
maŋŋuu pta</w>
mali kługu</w>
makita ruaq</w>
maaqtu q</w>
lu tiglu</w>
lu niḷu</w>
ll asiv
li ŋaruq</w>
li uġ
li qutau
l akput</w>
ktu t</w>
ktu atun</w>
ksr aŋa</w>
kku mi</w>
kka mnik</w>
kiḷḷiġru aqtuqtu
kiŋun ġu
ki guti
kaŋiqsiñaiñ ŋaruaq</w>
kav i
katch uŋa
kan ŋutch
kamanau taa</w>
k uvi
k sau
k .</w>
iḷḷ utiŋ</w>
iḷi vḷugich</w>
iḷaur aali
iḷ ḷusi</w>
iḷ utin</w>
iḷ aŋanni</w>
iḷ ak
iḷ aitchu
iñuu ŋŋa
iñuu ruam</w>
iñuk tau
iñugiaktu anun</w>
iñ ŋarut</w>
iviġ agni
iviġ ag
ittu gut</w>
itq atau
itchi k</w>
isi qłuni</w>
iq p
inill akługu</w>
ini gi
im aq
ili miŋnun</w>
ikipk auti
iglu m</w>
ig uvsi</w>
ig ni
i ŋich</w>
gu suli</w>
god-ili qi
gi ñ
gi vsiŋa</w>
galu aġmi
galu aġ
gaa nŋa</w>
gaa k</w>
g ñik</w>
g un
d om
aŋiññ i</w>
aŋiñ ñi
aŋitchu aq</w>
aŋipk ai
aŋaiyyuvi ŋ
aŋaiyyuvi um</w>
aŋ isun</w>
aġni aŋitchuq</w>
aġni aġai</w>
aġi vsiŋa</w>
aġi aġlugich</w>
aġ aich</w>
av yu
av siññi</w>
ausi atun</w>
aull aŋaruk</w>
atqi ŋaruq</w>
ati si
atautchi kun</w>
ataniġnaqu taagun</w>
ataniġnaq unmik</w>
at tu
at aull
at ani
at aiḷ
arg aŋ
aquv inŋaruq</w>
aquppiut aŋiñi</w>
aqtu q
aqtillu ŋa</w>
aqpi gu</w>
aqpa tin</w>
aqpa si</w>
aq avsi</w>
aq ama</w>
aptiŋ nun</w>
annuġaa tiŋ</w>
annaur r
ani kamigich</w>
an na
an d
ami gun</w>
allatuq ti
al utiŋ</w>
aktu q</w>
akiḷḷiḷiqsu uti
aiñ ŋaruq</w>
aitchuusiaq aġni
aitchu ŋagaa</w>
aitchu ġni
aiq ł̣ugu</w>
ai silaa
agu ruaq</w>
aglaa gu
ag lu</w>
aaq ługich</w>
aak aŋalu</w>
aa ŋaruq</w>
aa ta</w>
a- mullu</w>
a łługu</w>
a iḷḷi
a iḷu
a ch
Zebede e-m</w>
Uvlu pak</w>
Uvlaa kumman</w>
Uq autigi
Umiali ik</w>
Ukpi ġi
Timoth y</w>
Tavr asuli</w>
Tai mani</w>
T amarra</w>
So lom
Siv unni
Si d
Sadduc ee
S y
S apiġñ
Phili p
Peter -mik</w>
P ani
Nan ġaqtauli</w>
Nagliktu usiaqp
Mak illutin</w>
Kiñ a</w>
Ki isaimmaa</w>
Jerusalem- mu
Iḷis aurr
Iġñi ŋata</w>
Iġñi ġ
Isumal itqi
Ilitqusiġiksu aŋa</w>
Ilitqusiġiksu akun</w>
Gree c
Galilee- mi</w>
Galilee- m</w>
F eli
Elizab eth</w>
Corneli us</w>
Cai aph
Caesare a-mun</w>
C r
Bethan y
Babyl on</w>
Aŋaiyy uvi
Aġ naaq</w>
Atan ġ
An naur
All at</w>
Agri ppa</w>
Aapa miñ</w>
-gu ruat</w>
- vlu</w>
ŋiḷ ḷusi</w>
ŋitchu anun</w>
ŋi pi
ŋar aŋa</w>
ŋakk aġa</w>
ŋaitki ksi</w>
ŋaitchu si</w>
ŋaitchu gut</w>
ŋagi ñ</w>
ŋagi vsiŋa</w>
ŋagalu aqtuasii</w>
ŋa niñ</w>
ŋ n
ŋ iḷḷu</w>
łu giḷḷu</w>
łu gi</w>
ġumiñ aitchuq</w>
ġu pta</w>
ġni aqtuq</w>
ġmi u</w>
ġ un
ġ lusi</w>
yuma vlugu</w>
x and
vsi sun</w>
viŋ mi
viksr aŋat</w>
vi siuŋ</w>
vi sigik</w>
uvlu ŋa</w>
uv ani
uur rau
uuktu aġusi
uqti tchi
uqallak ama</w>
uqal uksr
uq qa
uqqa miñi</w>
uq pi
uq aurruti
uq ama
uq .</w>
unnu amiḷu</w>
uni .</w>
un nagu</w>
ukpiġi ŋagaa</w>
ukił̣h aa
uk łuni</w>
uk kaŋ
tuyu utinik</w>
tuvaaqasi uti
tqi kkumiñ
tiŋ ich</w>
tivraġiks aunmik</w>
timi vut</w>
tilisi ŋarut</w>
tilaa ŋat</w>
tilaa ġnik</w>
tigutaaġ viŋmun</w>
tig li
ti maa
tchi anun</w>
tam aun
tainna iḷi
taa ni</w>
taa lu
taa gu
suŋa uraa
suġau t
suġaliġ nik</w>
suġ all
supayaa tigun</w>
su uv
su rru
su payaur
su kp
siŋaiy au
siñ aani</w>
sivunni uti
sivulli ġ
sivikitchu ami</w>
siv ḷugich</w>
siv uġ
siv uqqamiñi</w>
siami n
savaa nik</w>
savaa lluat
savaa ksr
salumm aqtau
sal oni
saloni c
sal li
saaq siññ
saa ni
s aġlugu</w>
rau ni
quviasu utiqpaq
quviasu kp
quliaqtuaġuti vlugich</w>
qu lli
qtu at</w>
qiḷiqsru i
qiḷaŋmiittu amun</w>
qaumm aġmi</w>
qanusipayaa nik</w>
qanusipayaa mik</w>
qali ġu
qaitqu ŋagai</w>
qaaq łuni</w>
qaa ŋanun</w>
qaa ŋani</w>
qaa łhiñ
qa itqigñi
pku llu</w>
pk aġlugu</w>
piḷġu tch
piḷġu siq
piḷu si</w>
piḷ uk
piḷ i</w>
piŋayu ak</w>
piñ aiḷu
piviuttaq qutiq
pisu ŋiñ
pisaa ŋŋa
pim aqłu
piksraqtaaġi ŋagai</w>
piksraqtaa gu
pigiitchu aq</w>
pigiitchu akun</w>
pigi liuti
piaqłuk t
pi ŋagaa</w>
pi u
pi tquti
pi ruat</w>
pi itchu
pi guvsi</w>
ph r
ph i
payaa m</w>
patch isi
pasikk uti
p aŋata</w>
p alu
on -
null autch
nukatpi aġruk</w>
niġu uq
niġiḷ ait
niġiiḷḷ aqtau
nivli ŋaruq</w>
nipi ti
nip aa</w>
nimiġiaqłu k</w>
niaġ aatin</w>
ni ḷuŋa</w>
ni kami</w>
ni aŋit
nayuq tigi
nau saiññ
napaaqtu q</w>
napaaqsiqi rit</w>
nalupqi naitchuamik</w>
nalaunŋaru ali
nakuu łhaaqtu
naama ruamik</w>
naalaġni sitchi</w>
n avi
n all
n aasii</w>
mñ un</w>
mñ i</w>
miittu amun</w>
miittu ami</w>
mi unun</w>
mi rruŋ</w>
mani ññ
malġukipi ani</w>
malġug nun</w>
malu gu</w>
maliksu kti
makit aŋarut</w>
ma tigut</w>
ma nna</w>
ma gich</w>
m ŋa</w>
lu gik</w>
ll avlugu</w>
li sin</w>
li si</w>
ktu amik</w>
kti k</w>
kk uti
kk aġ
kk avsiññik</w>
kaŋiqsiñ aqsi
kav an
kat aktuatun</w>
kamana iññiqsr
kama kkutiq
kali mñ
iḷu ani</w>
iḷu ani
iḷitch uq
iḷisauti ŋagai</w>
iḷis ausi
iḷiappau ruaq</w>
iḷ itchu
iḷ aŋa
iḷ aitchuq</w>
iłuiḷḷi uqtitau
iłuaqsi ri
iġ ḷugich</w>
iñuuni aġusi
iñuu ruasii</w>
iñugiaktu atigun</w>
iñu llaa</w>
iñu a</w>
iviġauma n
iviġ agu
itqanaiy auti
itchu aq</w>
isummatigi lluat
isumalitqi ksi
isumal itq
isuma visi</w>
isuma t
isivġi ġñi
isi atun</w>
isaġul g
irru tiq
iq allu
in u
in niaqtuq</w>
in miñi</w>
imnai sun</w>
imi ġu
iluq atiŋ</w>
iliŋ iññiñ</w>
ilitqusiqł̣u ŋnik</w>
ilitqusiqł̣u k</w>
ili miñun</w>
ilaa tun</w>
ilaa ta</w>
ikł̣igutchakti nni
ika miuŋ</w>
ig niġuuq
ig al
igal aur
i kisi
guq ati
gu miuŋ</w>
gi lugu</w>
galu aġupta</w>
galu aġnani</w>
g aksrau
es salonic
en e</w>
ee l
e xand
do m</w>
di a-
d al
dal ene</w>
c ari
aŋal ałługu</w>
aŋaiyyuvikpaŋ miñ</w>
aŋaiyyuvi ŋiññi</w>
aŋa yukł
aŋa mmiuq</w>
aŋ utim</w>
aŋ iñi
aġuu ruq</w>
aġu maa
aġ miusi</w>
aġ li
av sigik</w>
av lugich</w>
av ataa
au t
atqun aq</w>
atautch isun</w>
atausiŋŋuqatigi ŋa
atausiŋŋuqatau ŋa
asiḷiq qutau
as -gum</w>
aqł utiglu</w>
aqulli ġñi</w>
aqtu ak</w>
aqtillu si</w>
aqti tun</w>
aqti nniaġaasi</w>
aqs aqługu</w>
aqpi siuŋ</w>
aqpa mik</w>
aqpa gich</w>
aqp aliurr
aqhi i</w>
apiaġat aŋarut</w>
anuġ i</w>
annuġaa nik</w>
annuġaa ni</w>
aniqati nun</w>
ani ŋarut</w>
ani tqi
ami rruŋ</w>
alġaqsruitquvlu ŋa</w>
alġaqsru iñiġ
alla yu
all atun</w>
all am</w>
aliuġn aqtigi
ali asii</w>
akuqtu aġi
aktu aq</w>
akiḷḷiḷiqsu ġ
akiḷ iġñi
ak is
aiḷḷ utiŋ</w>
aiññ iq
aiñ ŋarut</w>
aitk aich</w>
aitchu utinik</w>
aitchu si</w>
aitchu ami</w>
ait kai</w>
air vianni</w>
aiq ł̣u
agu umma
aglu ni</w>
agl aŋaruq</w>
agl agiñ</w>
ag niqsr
ag niaqtut</w>
aasi ivsauq</w>
aa à
a ruat</w>
a payaa
Zechari ah</w>
Uvaŋa ptauq</w>
Uv agu
Un nu
Umial gu
U u
Tyr e-
Tr o
Ti tus</w>
Th essalonic
Taavru miŋa</w>
Taam naasii</w>
T ar
Sun apayaaq</w>
Sim on
S uksr
Ruth -gum</w>
Rome- miunun</w>
R abb
Quviasu gitchi</w>
Qaŋa uvlugu</w>
Qaġ ġi
Q iñiq
Q aun
Piḷu ut
Paŋmapak -aasii</w>
Paġla sigik</w>
Paptai qsi
Ni co
Nao mi</w>
Naagg apiaġataq</w>
N uli
N ap
N akuu
Mose s-mun</w>
Mary -
Mag dalene</w>
Kiñ apayaaq</w>
K isu
K ig
Jonah -m</w>
Jew-guŋitchu asii</w>
Iḷisima rugut</w>
Iḷ aksi
Iñu salaich</w>
Iñu payaat</w>
It qan
Is cari
Ili ŋikta</w>
Il itqu
I ġ
I á
I si
Herod- gum</w>
God-i pta</w>
Cr et
Caesar -m</w>
Barnab as</w>
Aŋaiyy uti
Avi lait
Aull aġitchi</w>
Atanniqsimma taa</w>
Ataniġ miñ</w>
Apiq sru
Antioch -mun</w>
Al exand
0 0</w>
-gu ruŋa</w>
ḷu talu</w>
ḷu gik</w>
ŋŋa qtau
ŋiḷ aa
ŋił̣ł̣u ŋa</w>
ŋitk itka</w>
ŋisi tun</w>
ŋisi laa
ŋi ł̣ł̣utiŋ</w>
ŋi rruti
ŋaru tin</w>
ŋammi gai</w>
ŋaiġ ḷutiŋ</w>
ŋaiq ł̣ugu</w>
ŋagi si</w>
ŋagi kpiñ</w>
ŋa v
ŋa nni</w>
ŋ aaglaan</w>
ł̣ł̣u ŋa</w>
ł̣h aaqtuq</w>
łh aaġni
ł aur
ġumiñ aitk
ġu ruatiin</w>
ġu ma</w>
ġna k</w>
ġmi ŋ</w>
ġmi sun</w>
ġiksu at</w>
ġiksu anik</w>
ġ aatigut</w>
ñ un</w>
z eb
yumiñ aŋagalu
yumiñ aġni
yu mal
y au
viksr aqsi
vi g
v ai
uŋiar ris
uvluġi at</w>
uvlaa mi</w>
uviq ta
uv vauna</w>
uu m</w>
uu li
utiq ti
utiq aġumiñ
ut tu
usi aġi
ur vigi
uqu ma
uqautigi ŋagaat</w>
uqautigi lluat
uqautigi kk
uqaqti migun</w>
uqaqsi ġi
uqama yu
uqallausiġi anikamiuŋ</w>
uq ługu</w>
uq ługich</w>
umiaqpaŋ mun</w>
umiali ktun</w>
umi aqpak</w>
umi aqpag
ull agu
ukpiŋŋu aqtuasii</w>
ukpiġutiq aqtuiññ
ukpiġuti kun</w>
ukpiġutai qsi
ukpiġu taat</w>
ukpiġu taa</w>
ukpiġi li
ukpiqtuaguq ati
ukpiliqsu at</w>
ukki i</w>
uiḷg aŋaruat</w>
uiksrauti m</w>
u uti
u s-mik</w>
u pi
u lu
tuvaaqat aa</w>
tuvaaq atigi
tuquŋa mmiuq</w>
tuqu aqsi
tuqquti m</w>
tuq uvlutiŋ</w>
tuni uq
tu si
tu nu
ttu tigut</w>
tiŋmi at</w>
timi ni</w>
tilaa mnik</w>
tilaa miñik</w>
tilaa misun</w>
tikiññ ami</w>
tikiñ ŋarugut</w>
tiki uti
tik iḷġat
tigi ñ</w>
tig uvlugich</w>
ti ti
ti nik</w>
ti miŋ
tchi kun</w>
tchaur ami</w>
tchaiḷi r
tch iqsu
taġiu mi</w>
taġi umi
tavrani inŋaruq</w>
tauqsi ġñi
tau r
taigu utiq
taagu ŋa
taa pkunani</w>
t aq
t aku
suŋauraa mmaġi
suġalli ruaq</w>
suġalli ruam</w>
suġ aliq
suu ruq</w>
suliqutigiŋaiqsau rut</w>
suk łusi</w>
suk łuni</w>
sug lugu</w>
suaŋŋa taata</w>
suaŋa irruti
su mu
su mi</w>
su gi
sru ġ
sr i</w>
siḷalli ñ</w>
siḷ ḷuat
siñi g
sivunniuġuti ni</w>
sivun niq
sivu uq
sitquq łuni</w>
siqsu uti
siq atigi
siiġñaqaġvi um</w>
siiġñ anik</w>
sigi lugu</w>
siami nŋaruq</w>
savauti vlugu</w>
savaurr iñiġ
savaa ŋa</w>
sav aŋagai</w>
sav aiññi
sav agi
sav aaġ
sapiġñ aġniqsrau
sal m
saa p
s ani
ru anullu</w>
ru al
rru tau
ri ch
rich o
rau ŋaruq</w>
rau ruat</w>
rau ruaq</w>
r vich</w>
r aqtuq</w>
r ap
r ani</w>
quviasu utigi
quviasu g
qupil ġu
qun mi</w>
quli tun</w>
qtu aq</w>
qiḷaŋ mu
qiḷaŋ miŋŋaqtau
qimak ługu</w>
qima ŋagaa</w>
qi mma
qaġġisi ŋagaat</w>
qat t
qapiŋaisaa ġusi
qapiŋais aaġ
qanuq inniġ
qanu payaaq</w>
qan ġ
qan ukkii</w>
qam alli
qai ŋaruŋa</w>
qai ŋaiñŋaan</w>
qai rut</w>
qai ruq</w>
qa itchi
q tiŋ</w>
q iq
q aŋ
q ami
q al
puggu taur
pu uġ
ptu q</w>
pkaġni aġitka</w>
piḷġusi ŋich</w>
piḷuuti tiŋ</w>
piḷuuti kun</w>
piḷuut ai
piḷuusiqiri niñ</w>
piḷai ŋaiqsi
piñaiḷu tchiqsu
piñ aiḷ
pitqur amik</w>
pitqur aiḷ
pitqiksi ġau
pisu k
pisigi vlusi</w>
pisigi suŋaġnagu</w>
pisi laaŋanik</w>
pisaa su
piraksri i
piqa si
piaġat aqtuaq</w>
pi ŋŋu
pi ruaq</w>
pi maaqtu
pi ka
pika ł
pi iqsau
pi aŋa
pi atchi
pi aqtut</w>
pi al
paŋmapaŋ miñ</w>
paġlag aasi</w>
payaur aniñ</w>
paaq łi
pa gu
pa glu</w>
p urvigi
p tigiñ</w>
p talu</w>
o t</w>
nutau ruakun</w>
nunau ruanun</w>
nunami ittuat</w>
nunagi ksuamun</w>
nunaaqqi mi</w>
nunaaqq iñiñ</w>
nun aglaan</w>
nullautch iġ
nu ŋu
nniaġ ai</w>
niġ lu</w>
niġ iḷḷ
niġ itqu
niġ aa</w>
niv ḷuni</w>
niqi pi
niqi mik</w>
niq iq
nipt aŋaruq</w>
nipauqłuk t
nipaal avlutiŋ</w>
nip an
niaġni vḷugu</w>
niaġi ñ</w>
niaġi si</w>
niaqq uni</w>
niaq siññ
naġ ġun
nau ruat</w>
napaaqtu ayaa
nalupqisu ŋitchuŋa</w>
nalauti n
nal autch
nakuu ruamik</w>
nagliksaaqti tchi
naalaġni ḷ
naa kka</w>
n ŋ
n ani
mmi gaat</w>
mma si</w>
miñ iqsuq</w>
miu r
miu gu
miki ruur
mi g
mattu ma</w>
maniq aġ
mani ŋmik</w>
mani gñik</w>
mal ġuk
makk unani</w>
mak äa</w>
ma nni
ma gi
ma gaan</w>
m o
laa nun</w>
l e
l aitkaa</w>
kuu gum</w>
ksu aq</w>
ksr aŋat</w>
ksr avsiññik</w>
kki vsi</w>
kka pkun</w>
kk aŋiñik</w>
kk aŋanik</w>
kiŋuni ŋi</w>
kivg aġa</w>
kisi miŋ</w>
kisi iññun</w>
kisi isa</w>
kipiġniuġ utigi
kig guti
ki a</w>
kaviqsu aq</w>
kasi mma
kanŋun aqtuakun</w>
kaman aun
kaman aqtuanik</w>
kakak ti</w>
k tau
k sal
iḷuvvi viŋmun</w>
iḷuvvi vium</w>
iḷu anun</w>
iḷitchitqur aq</w>
iḷitch itqu
iḷisima vlugu</w>
iḷisi malluat
iḷiappau ruanun</w>
iḷ umi
iḷ iḷugu</w>
iḷ auruat</w>
iḷ atch
iłuaqsirau ŋarut</w>
iġ alu
iġ allu
iñuuni aġu
iñuu sitchi</w>
iñuu s
iñuk taġi
iñugruiññ au
iñugruiññ aich</w>
ivi gi
iv s
ittu aŋanik</w>
it qau
it kai</w>
isumat tut
isumakkusiaq aġluat
isuma ŋich</w>
isu mmati
isivġi q
isig ag
isi laaŋanik</w>
isi gut</w>
iqsu t</w>
iqi rit</w>
iqi rim</w>
iq ł̣utiŋ</w>
iq iri</w>
iq aa</w>
in ŋitchuq</w>
immu at</w>
iluq avsiññun</w>
ili ktun</w>
ilaagu aqt
ilaa lu</w>
ikuvġ atin</w>
igni ġum</w>
ig niqtun</w>
ig laagu
i tiq
i ch
gup tigu</w>
gu unnii</w>
gu miŋ</w>
gi tch
gi mmatun</w>
g alu</w>
g aksr
e- lu</w>
e a-
aŋŋa vsi</w>
aŋiñ mi
aŋipk aŋa
aŋaiyyuvi ŋmi</w>
aŋa ruam</w>
aŋ ŋi
aŋ isigun</w>
aġumiñ aitchuq</w>
aġu ut
aġu mausi</w>
aġni aġalu
aġ uktu
aġ ru
aġ is
ayau ŋaruaq</w>
ayau ŋa
ay uktu
aullauti ŋagaat</w>
atq aqtuaq</w>
atiq aqtuam</w>
ati ŋich</w>
ath an
atch aŋaruq</w>
atausiŋŋuqatigi ŋavlugu</w>
ataniġnaq utiksr
atanaur aŋisa</w>
atanaur au
at aunnii</w>
at a
asugalu ŋa</w>
aqłu gulu</w>
aqłu gik</w>
aquvi łłuni</w>
aqulli ġmi</w>
aqu atigun</w>
aqtu guk</w>
aqtu atiin</w>
aqtu atigun</w>
aqtillu ta</w>
aqtilli uŋ</w>
aqtilaa ŋat</w>
aqti tch
aqsi ḷugich</w>
aqp aŋa</w>
aq aŋaruq</w>
apiġ itqi
apiqsru q
ap kich</w>
annaurrau niksr
ani ttai
ani kamirruŋ</w>
anay anni
ami ġ
am niñ</w>
am ni</w>
alġaqsruutigi tquvlugu</w>
alġaqsrui ŋaruq</w>
aliasu ŋis
ali ktu
al aitchuq</w>
akuqtuġn aġumiñ
akuqtu ġ
akunġ anniñ</w>
akul aitchuami</w>
aku tuq
aktu t</w>
akiḷi i
aił̣ł̣u gich</w>
aiġ ḷugu</w>
aitchuutiginni ktuaq</w>
aitchuuti ŋi</w>
aitchuusiaq aŋaruq</w>
aitchu utit</w>
aitchu gut</w>
aimaaġ viŋ
ai yugaa
ai si
ai ruaq</w>
aak aŋa</w>
aa paŋa
a łhaaqtuq</w>
a ruq</w>
a pak</w>
a iñi
Z i
Umiali gi
U umi
Tuv aaq
Timothy -lu</w>
Thoma s</w>
Tautu gi
Tai pkua</w>
Suġ alli
Sus a-mi</w>
Suksr aunġi
Su miñ</w>
So dom
Sivu niġi
Sivi su
Sim e
Satan -gum</w>
S una</w>
S iq
S ar
Rabb i</w>
Quviasu gli</w>
Quliaqtu aġi
Qulaurrusiqi viŋmun</w>
Qaŋa unnii</w>
Q uviqta
Q aiḷ
Piḷ ḷuat
Piraksr i
Pilat e-mun</w>
Pi gi
Peter -mun</w>
Per si
Paġla siuŋ</w>
Paul -miñ</w>
Paptaiqsi m</w>
P iññ
Niqin aq
Ninev eh
Naomi -m</w>
N uk
N autchi
N athan
Mary -m</w>
Kama n
K ati
K an
Judea- miñ</w>
Jud as-lu</w>
John -mun</w>
Jew-gu ruaq</w>
Je richo
Iḷaksi an
Iġñi ŋanik</w>
Isu maa
Isai ah</w>
Im ma</w>
I rrusiq
Hebrew -tun</w>
God-i kun</w>
Egypt -miñ</w>
Christ- tun</w>
Barabb as</w>
B er
Aŋuy akti
At aramik</w>
Aqu lli
Aniqati imaaŋ</w>
Alġaqsru i
All asuli</w>
Aapa ri</w>
Aapa mik</w>
A ġn
A ni
- miglu</w>
- kun</w>
ḷ ġat
ŋŋa qaŋa</w>
ŋŋ uġ
ŋŋ aan</w>
ŋñ un</w>
ŋit pi
ŋit kivsiŋa</w>
ŋit kai</w>
ŋaiġ ḷuta</w>
ŋaiġ ḷugich</w>
ŋaitchu amik</w>
ŋait pisiuŋ</w>
ŋagi ŋma</w>
ŋagi vut</w>
ŋa vlusi</w>
ŋa visi</w>
ŋa suli</w>
ŋa nnun</w>
ŋa nivḷugu</w>
ŋa mmiuŋa</w>
ŋa iḷ
ŋa iqsuq</w>
ŋ na
ł̣ aur
łu gulu</w>
ġuu rut</w>
ġuu ruq</w>
ġumiñ aitkaa</w>
ġni aqtuŋa</w>
ġni aqpisa</w>
ġna si</w>
ġmiu gu
ġ ḷugich</w>
ġ uvluni</w>
ġ luni</w>
ġ aa
ñi aqtut</w>
yumiñaqsi ḷugich</w>
yum aaġ
yum aaq
vlu niḷu</w>
viksr aŋa</w>
vi ich</w>
vi ani</w>
v siññ
v atin</w>
uġniġ miḷu</w>
uġ alu
uyaġag ruaq</w>
uyaġ aich</w>
uvlu miḷu</w>
uvlaa kun</w>
uvi si</w>
uvi ksr
uvaptiŋ niñ</w>
uvap tun</w>
uvap tiktun</w>
uumikł iqsu
utiq aŋarut</w>
utiq aqłuni</w>
utigi giga</w>
uti tin</w>
uti si</w>
uqtu aq</w>
uqavig aaġutigi
uqav aaġ
uqauti ŋiñik</w>
uqauti vlugich</w>
uqauti rraqsiŋagai</w>
uqautchi mik</w>
uqaurruti ŋarut</w>
uqarraqsi ŋaruq</w>
uqalu ŋiññik</w>
uqalu mnik</w>
uqalu atigun</w>
uqalu at</w>
uqal uktu
uq si
uq aġumiñ
uq aġlutiŋ</w>
uq aġataviksi
uq aġalu
uq aqtuksrau
upku aqp
unniqsuqłi isaa
un miñ</w>
un mi</w>
umialiŋ nau
umialg ata</w>
ukpiġ na
ukpiqtu aġuq
ukpili ŋaruat</w>
ukił̣h aanik</w>
uk ku
u ä
u uk
u iñi</w>
tuvraa ksri
tuvaaq atiq
tuttuqłu ich</w>
tusi attu
tusaa ŋakk
tusaa ŋagaa</w>
tuqutau niksr
tuqu r
tuqur viksraqsi
tuqu li
tuqu kpan</w>
tuqu kami</w>
tuq qun</w>
tupi q</w>
tuniqsi ma
tu un
tu s-mun</w>
tu q</w>
tu l
tquvlu tin</w>
tquvlu ni</w>
tqu ŋił̣ł̣ugu</w>
tqi ŋman</w>
tqi gñi
tiŋmi atun</w>
tiŋmi aq</w>
timi miñi</w>
tili ŋagaaŋa</w>
tili raġi
tili qi
tik itchi
tigligayuk tiq
tigi ruamik</w>
ti riq
tiriq ti
tchi ani</w>
tautuk ługich</w>
tautuk siḷḷ
tautug n
tautu kkumiñ
tauq siqsu
tau niaqtuq</w>
tatqi ch</w>
tat am
tallimakipi atun</w>
takku ani</w>
taitchu akun</w>
tai rruti
tai pkunani</w>
tai mm
taam nau
ta s
ta iñi
t taa
t aksrau
suŋ aaqtu
suuŋiḷ aġi
supayaa nun</w>
supayaa kun</w>
suaŋŋa n
suaŋasiḷ aaqtau
sua mmati
su uti
su ksrau
su aŋagaa</w>
siḷivi nŋa
siḷ utin</w>
siḷ i</w>
siġḷiġ n
siññi glu</w>
siññ aktu
sivunm uktu
sivulli uqtau
sivisu ruamik</w>
siv sun</w>
sis aiññ
siq ł̣
siq iñ
si uvva</w>
si p
si mmi
savaaġi ŋar
savaa si</w>
savaa ni</w>
sav aŋaruq</w>
sav aqatigi
sau ŋaruq</w>
san mi
salapqi ŋagaa</w>
sagluqi pkaġnasi</w>
s- miñ</w>
s s
ruksrau ruq</w>
quyy ati
quvi an
quv iq
qutchi ksu
ququ aqtau
qulliq aġvi
quliaqtuaġi vlugu</w>
quliaqtu agu
qqaaq ługu</w>
qiḷaŋmiittu at</w>
qitiqq aqp
qinn auti
qimi qq
qima ŋagai</w>
qiksi ksr
qi muk
qi llu
qi aqp
qi aniaqtut</w>
qaŋa uvlugu</w>
qaġġisi vlugu</w>
qaunagi sitchi</w>
qaun akł
qaumma q</w>
qaumm aqtun</w>
qauman ġa</w>
qau mmaa
qanutu łhaaq</w>
qan aaġuti
qan aaġ
qak iq
qaiḷ uni</w>
qaiñ ŋagai</w>
qais aŋi</w>
qai guma</w>
qaaq łutiŋ</w>
qaa ŋagun</w>
qa itqi
qa itch
q avsi
q aniġ
q ama
punni ġnik</w>
pkaġni aġmi
pkaġ aatin</w>
pk aġlugich</w>
pk all
piḷḷuat aqtilliuŋ</w>
piŋayu iŋich</w>
piŋasu nik</w>
piñi aqtuq</w>
piñ aġumiñ
piyu uti
piyu mmatiq
piviuttaġi r
pitqur anun</w>
pitqiksi ġ
pisuu taanik</w>
pisu ġu
piraġautch ich</w>
piqati niḷu</w>
piq pagi
pimaqłuk t
pigi su
pigi kkaŋi</w>
piaġat aqługu</w>
piaġat aqtuq</w>
piaġat aqtuamik</w>
pi yuma
pi tchiġi
pi ruatigun</w>
pi ruanik</w>
pi rau
pi kamiŋ</w>
pi k
pi iy
pi iqsi
pi aġivsi</w>
paġl aŋa
payaur aqtuat</w>
patchis aiññi
paqin na
pama rrusi
pa rruŋ</w>
p ali
p aił̣ł̣uni</w>
o liv
nun uur
nun aŋannun</w>
nun auruat</w>
nun aliqi
niġ ni</w>
niġ a</w>
niv ḷutin</w>
niqł iqsu
nipiti rruti
niaq saa
ni ḷ
ni ŋman</w>
ni ŋagun</w>
ni vḷusi</w>
ni ittuaq</w>
naŋ in
naġ ġuk
nayu uti
nautchirri i
nasugalu si</w>
nasugalu gu</w>
nasu gi
naq sivḷugu</w>
napaaqtu t</w>
nap pai
nanġ ausi
nalupqinaiy autinik</w>
nalaunŋasi pk
nalaunŋaru al
nal ukka
nal ukk
nagli ksr
nag g
nagg uviksr
naagg aq
naaggaq aa</w>
n n
n miglu</w>
n aŋa
mu s</w>
mmiu gut</w>
mmi utin</w>
mma ni</w>
miqłiqtuur aq</w>
mi u</w>
mi l
mil e-
maŋŋu uvsi</w>
mayuurrau ŋaruq</w>
mau gut</w>
maniŋ ñiñ</w>
mani sal
malġukipi aq</w>
malġu ŋni</w>
malġu u
malġu iqsu
malġu glu</w>
maliġu aqti
mali ŋagaa</w>
makpiġ aani</w>
makit tin</w>
makit aŋaruq</w>
maani ittuq</w>
ma ŋŋaqaŋa</w>
ma tt
m aġ
lu talu</w>
lluat aq</w>
ll aġmi</w>
ll ak
li ŋarut</w>
li uŋ</w>
ksri uq
ksrau taa</w>
ksrau pi
kku ma</w>
kku llu</w>
kki uti
kk aŋanun</w>
kiŋuvaann aktu
kiŋuni i
kivg aŋisa</w>
kivg atun</w>
kivg amik</w>
kiguti tiŋ</w>
ki vi
ki suur
ki s
kaŋiqsi siq
kaŋ i
kav vi
kami tku</w>
kamasu ŋarut</w>
kamanałhaaqtu aq</w>
kamanaqsi ḷiq
kaman aqtigi
kamaksri ruat</w>
kama saaġ
k łuŋa</w>
iḷuv siññun</w>
iḷuv siññi
iḷu ptiŋni</w>
iḷitchuġi vlugu</w>
iḷitchu ġ
iḷitchitqur atin</w>
iḷisima giga</w>
iḷis aqsr
iḷis aiññ
iḷi ŋagaat</w>
iḷau ruaq</w>
iḷ iḷ
iḷ aliuti
iḷ aku
iḷ aitchut</w>
iłuiḷḷiuġutiq pak</w>
iłuaqsi ŋagai</w>
iġñi ŋik</w>
iġñi ġu
iġñi ni</w>
iññ aqtuaq</w>
iñuŋ miñun</w>
iñuŋ ich</w>
iñuuvi gi
iñuut quvlu
iñuuni aġni
iñuu siġ
iñuu ruamun</w>
iñuu niaġ
iñuu mman</w>
iñuił̣aa mun</w>
iñugi agniqsr
iñugguti ni</w>
iñugg unmun</w>
iñug gun</w>
iñu utilaa
iñu payaur
iñ ŋagaat</w>
iñ miuq</w>
iñ au
iy y
ittu ŋa</w>
ittu aŋa</w>
itqan aitchu
itchu miñ
itch uq
itch itchi</w>
itch isu
itchisu q</w>
isumattut aa</w>
isumattu ti
isumal aaġutigi
isu mma
isu m
isi qłutiŋ</w>
isi n</w>
is alu</w>
irru siq
iqsiñ ñi
iq sigi
ipiqtu tch
inna ittuq</w>
ini mi</w>
in niaqtut</w>
in miñ
in miuq</w>
imma mun</w>
imiŋa si
imi ksr
iluq apayaur
iliv siḷu</w>
ilaa ptauq</w>
ikipkai viŋmi</w>
iki aktu
ik kich</w>
ik aa
igḷu anik</w>
igluq paŋani</w>
igl aull
ig ru
ig liq
ig laa
ig a</w>
i łłuni</w>
i à
i pkua</w>
gup kich</w>
god- tiliqi
gi tchuq</w>
gi t
galu aġnagu</w>
galu aqtut</w>
g rap
g niaġ
g lugu</w>
g aaġ
es- nik</w>
es -gum</w>
en e-
el e
eel zeb
e l</w>
di as</w>
aŋŋa ġmi</w>
aŋuti llu</w>
aŋipk aŋagaa</w>
aŋaiyyuvi ŋmun</w>
aŋaiyyuvi anni</w>
aŋaiyyuliqi ruani</w>
aŋaiyy uvluni</w>
aŋa ruatun</w>
aŋa mmiut</w>
aŋ unmik</w>
aŋ niñ</w>
aŋ iḷu</w>
aġumiñaqsi ḷusi</w>
aġu pku</w>
aġniġ mun</w>
aġniġ miñ</w>
aġni ŋat</w>
aġni aġikpiñ</w>
aġni aqtutin</w>
aġmi ñik</w>
aġi ŋma</w>
aġi ŋagaat</w>
aġi vut</w>
aġi vlugich</w>
aġi gai</w>
aġ uġni
aġ uvich</w>
aġ utigi
aġ ut
aġ miuŋa</w>
aġ itchik</w>
ay uq
ay aitchuq</w>
av it
av guq
av an
autilaa ŋa</w>
autilaa mnik</w>
auti m</w>
aun mun</w>
aullaq atigi
aull aġiñ</w>
aull aqs
au ŋmik</w>
au na</w>
atuq ługu</w>
atuq ługich</w>
atqi gñi
atq aŋaruq</w>
ati gullu</w>
ati gu
atch ich</w>
atautchi miñ</w>
atautchi mi
atautchi m</w>
atanniqsimma taata</w>
atanniqsimma taanik</w>
ata ŋ</w>
at qaġ
at aġi
at aanun</w>
asug alutiŋ</w>
asiñ uurrau
asi iñ</w>
argag ni</w>
arg atiŋ</w>
arg ak
ar i</w>
ar -m</w>
aqł utik</w>
aquppi ŋaruq</w>
aquppi ruam</w>
aqtuksrau pi
aqtu tik</w>
aqtu ni</w>
aqtu aġlu</w>
aqtilaa qsi</w>
aqt i</w>
aqsiv ḷusi</w>
aqs aqługich</w>
aqpa tigut</w>
aqp an
aqaġ itchisuq</w>
aqa miuŋ</w>
aq q
aq apta</w>
aq .</w>
apiqsri ŋaruq</w>
ap qunmi</w>
ap qu
anu ġiq
anu ġim</w>
annuġaa ŋi</w>
anniqsu iñi
annaurrau niaqtuq</w>
anna gu
aniqati n</w>
aniqati iv
ani tau
ani mman</w>
anay asu
ami n
ami kkun</w>
ami ittuat</w>
alu ŋ
alu ġuti
all aŋ
aliuġn aqtuaq</w>
aliq iri</w>
ali ŋaruq</w>
ali uġu
akk aqsi</w>
akiññ agni
ak ut
ak ig
aiḷ ḷusi</w>
aiñ miut</w>
aitki ksi</w>
aitchuusiaqaġni ġumi</w>
aitchu ŋagaatigut</w>
aitchu ġumiñ
aitchu anik</w>
aiqsu atun</w>
ah -li</w>
agu ruq</w>
agli raksr
aglaa ŋi</w>
aglaa ttauq</w>
agl ag
ag lugich</w>
aaġ lu
aaq łuni</w>
aaka ru
aa yu
aa nni
aa niñ</w>
a- vlu</w>
a- miḷḷu</w>
a s-mun</w>
a r</w>
Xerx es</w>
Uv ani
Ukpi ġu
Tutqiutiq aġitchi</w>
Tau qsi
Tainna tulli</w>
Tain nauvva</w>
Taapku ak</w>
T er
T A
TA N
TAN I
TANI Ġ
Su liq
Siġ ġaq
Sivulli q</w>
Sivu uġ
Siq iñiq</w>
Savaiññi kun</w>
Samaria- ġmiut</w>
Quviqta iḷisi
Quli t</w>
Qaiḷ utin</w>
Qai sitchi</w>
Q i
Q api
Piŋa yu
Paul -mun</w>
P am
Oliv es</w>
Nun auruat</w>
Nalupqi su
Nalli ak</w>
Nalaun ŋaru
Nalaun ŋa
Nal liqsi</w>
Nagliktuusiaqp aqaġitchisuq</w>
Naalaġni siŋa</w>
Mo ab
Marth a</w>
Mal ġu
K il
K ikiaktu
Jew-gu ruanik</w>
Jew-gu ruani</w>
Iḷisaurr i</w>
Iḷis auti
Iḷ agi
Iġñi ġuruatiin</w>
Iġñi ġum</w>
Iġ ġi
Iñu g
Isumal aaġutigi
Isaġul gich</w>
Iqsiñ ak</w>
In nauvva</w>
Iluq asi</w>
Ilitqusiġiksu amiñ</w>
Ili vsi
Ika yuq
Igḷu tu
Ig l
I k
Greek -
Ephesu s-mi</w>
Elij ah-
Egypt -mun</w>
E n
David- gum</w>
Capernaum -mun</w>
C yr
C yp
C ili
C eph
C an
B eelzeb
Aŋuyakti t</w>
Aŋ uti
Aŋ un</w>
Ataniġ miñik</w>
Atani ptigun</w>
Aquv ittin</w>
Ak iḷi
Aitchu usiaq
Aapa ga</w>
Aap aŋa</w>
Aa r
A tu
A TANIĠ
000 -tun</w>
-gu ruaq</w>
- nun</w>
- mu
- aglaan</w>
ḷḷ iqaa</w>
ŋiḷḷ utiŋ</w>
ŋiḷ ḷugu</w>
ŋiḷ aġi
ŋił̣ł̣u giḷḷu</w>
ŋiññi vḷugu</w>
ŋiññi glu</w>
ŋitki si</w>
ŋitki kput</w>
ŋitchu ma
ŋitchu atun</w>
ŋitchu amik</w>
ŋisi laaŋanik</w>
ŋaru llu</w>
ŋakka mnik</w>
ŋakk aŋich</w>
ŋaitchu aq</w>
ŋait ku
ŋait kivsiŋa</w>
ŋa vauŋ</w>
ŋa niqsut</w>
ŋa kpata</w>
ŋ mata</w>
ŋ itchutin</w>
ł̣ł̣u ta</w>
ł̣ł̣u gu</w>
łu niḷu</w>
łhiñ aq</w>
łhaaq ługich</w>
ł ł
ġuk ługich</w>
ġug lugu</w>
ġu miŋ</w>
ġiksu amik</w>
ġi mmatun</w>
ġi kpiñ</w>
ġi aqługich</w>
ġau magi
ġ ḷuni</w>
ġ ḷu</w>
ġ uvsi</w>
ġ ruiññaq</w>
ġ iñ
ġ aaġ
ñi à
ñ i</w>
ä a.</w>
á á
à i
yumiñaqsi ḷugu</w>
yumiñ aġluŋa</w>
yumiñ aitk
yaa nikami</w>
y si
y li
vlu tiglu</w>
viksr amik</w>
vi ġaumagi
vi annun</w>
v ḷutin</w>
v ḷu</w>
uŋiarr isigi
uŋasi ksu
uŋa ll
uŋa iġ
uyaġag ru
uyaġag mik</w>
uyaġ au
uvlu tin</w>
uvlu mun</w>
uvlu miñ</w>
uvlaa tchaurami</w>
uvam ni</w>
uv v
uun nau
uun n
uuli ksi
uuk tuq
uu ŋiḷaġi
uu muŋa</w>
uu muuna</w>
utuq qali
utt ag
uttag ayu
utilaa ŋat</w>
utiksr anik</w>
utiksr amik</w>
uti ŋi</w>
uti vlutiŋ</w>
utau yumiñ
utau rut</w>
usi ḷu</w>
uqtu t</w>
uqti nni
uqautigi ŋar
uqautigi kkaŋat</w>
uqaqti ŋisalu</w>
uqaqti gi
uqaqsitaaqtitchi r
uqamaqłu utigi
uqallauti vsaaŋagai</w>
uqallau n</w>
uqall aŋaruk</w>
uq łusi</w>
uq ausiq
uq aurri
uq au
uq aqu
uq aaqatigi
upku iġuti
unu ch
unnu aq</w>
umiaqp aum</w>
umialiŋ mun</w>
ull akk
ull ag
ukpiġutiq aqłuni</w>
ukpiġuti vsiññi</w>
ukpiġnaqsi ḷiġ
ukpiġ un</w>
ukpiqtuagu ruanun</w>
ukpiqtuagu ruaguut</w>
ukpili ŋaruq</w>
ukpili qu
ukpi ġumiñ
ukiu q</w>
ukiu mi</w>
uk unu
ui ksraun</w>
u taanun</w>
u ruaq</w>
u iñ
u gaa
tuyuuti mni</w>
tuvr auti
tuvaaqati ni</w>
tusaa ŋarut</w>
tusaa kk
tusaa kamiŋ</w>
tus aqsr
tuquŋa ruam</w>
tuqu ani
tuqtu aq</w>
tuqqun mi</w>
tuq łu
tuq uti
tuq uqatigi
tup qu
tuavaall akti
tuav aal
tualu u
tu yuq
ttu aq</w>
tqu givsi</w>
tqi g
tk aatigut</w>
tiŋ i</w>
tivvu aqtu
tivraġi ksau
tivlu ktu
timi vsi</w>
tilaa miŋnik</w>
tik itpan</w>
tik itch
tigutaaġ viŋmi</w>
tigutaa qsi
tigusi ŋaruq</w>
tigu mmi
tigu mi
tigguġlu ŋagaat</w>
tig uvlugu</w>
ti tchumiñ
ti mi</w>
ti llu
tchu ŋa</w>
tchu ma
tch aŋarut</w>
tch aksr
taŋŋi ani
taġiu q</w>
tax- nik</w>
tax es-nik</w>
tavrani ittuat</w>
tavrani inŋa
tautu kamisigik</w>
tau tuq
tat h
tap uti
tamma iñiaqtuq</w>
tamma i
talu ki
taliqpi ŋma</w>
tainnatch iñik</w>
tainna siq</w>
tai pkun
taipkun atun</w>
taaqtu ami</w>
taapkunu una</w>
taa ŋŋa
taa kti
ta iḷi
t ar
t ani
t amarra</w>
suġaut ta
suu ruaq</w>
supayaa m</w>
sumi ḷḷiqaa</w>
suliqutigiŋai ġumiñ
suksr aġi
suksr aaġ
suaŋŋa nmik</w>
suaŋŋa n</w>
su ŋiñ
su q
su nauvva</w>
su llu</w>
su liqi
su aluk</w>
siñi ktuat</w>
siñ ŋa</w>
sivunniuġ utigiŋa
sivunni ŋarut</w>
sivunni u
sivunm uu
sivun muk
sivulli ġmi</w>
sivu mni</w>
sivu anni</w>
sivisu tigiruamik</w>
sitqu ġvigi
sis am
siqiñ ġum</w>
siq si
simm ausi
siiġñ aġi
sigi rusi</w>
sialu gu
si ŋ</w>
si ŋ
si unnii</w>
si tchi
savik paŋmik</w>
savakti t</w>
savaagu ŋaruq</w>
savaa ŋiñik</w>
sav ił̣h
sav aŋ
sav aktau
sav akkumiñ
sav ag
sapiġñaġniqsrau ruam</w>
saniġ aanni</w>
salu mma
salapq iq
saglu tu
saaq łuni</w>
s aġ
s aqługich</w>
s ali
s ai
sai d
ruksrau rusi</w>
ruksr aġuq
ru aq
rru n
ris ci
risci ll
ri si</w>
ri nik</w>
quyy atiq
quviasu qatigi
quviasaaġusi anik</w>
quvia saaġ
quvia saaq
qutchi k
quliŋŋuġuti nik</w>
qu yaanikami</w>
qu lugu</w>
qu lugich</w>
qq aaqtu
qiḷ agu
qitun ġ
qisiqsi utinik</w>
qinnau taa</w>
qimma ksal
qimmaksal iy
qik aqtuat</w>
qi ti
qi rr
qi mmi
qi ku
qaŋa pak</w>
qaġġi rr
qaġġi r
qaukłi annun</w>
qau saġat
qau mani
qapiŋais aaqtau
qapiŋa iḷḷusi</w>
qapiq t
qanuġ luni</w>
qanuġ lu</w>
qanusiḷim aanik</w>
qanusipayaa kun</w>
qanu tchikun</w>
qalli silaaŋanik</w>
qalli ruq</w>
qaaŋiulaa ŋa
qaaŋ iġ
qaaŋ iqsi
qaa ŋa
qa siḷi
qa n</w>
q itqan
q aur
punni ġutiq
pun ŋarut</w>
puggutaur amun</w>
pu łłuni</w>
ptiŋ nullu</w>
pk aqs
piḷġu siḷḷuat
piḷuutaitchu at</w>
piḷuusiqiri nun</w>
piḷuksisuguu ruat</w>
piḷuksisuguu ruam</w>
piḷuksi ŋarut</w>
piḷu usiq
piḷu unmik</w>
piŋasu nu
piŋasu kipi
piŋa itchuq</w>
piġ uqti
piyu mal
piviksr amik</w>
pitchiġi iy
pisu gu
pisu aqtuaq</w>
pisi lugu</w>
piraksri utaa</w>
piraksri usi
piraksri ivḷuni</w>
piraksr iqł̣ugich</w>
piqa siqsuuti
piqa siq
piq paŋ
piq aqtu
pikał aktau
pik uktu
piiḷḷi uqtu
pigru ŋarut</w>
pigi ni
piaġat aŋa
piatchi aqt
pi vḷugu</w>
pi tchaiḷir
pi sru
pi qatiq
pi pkai
pi itchuq</w>
pi aŋagai</w>
pi aġlugu</w>
paŋma pak
paŋ mun</w>
paġl ammi
pau na</w>
pasi kkusi
pasi kku
pamarrusi aksr
paa ŋagaa</w>
pa mi
pa givlugu</w>
p uvi
p uti
p tigut</w>
p kich</w>
p alliġman</w>
on -miñ</w>
oliv e</w>
nŋa mmiuq</w>
nutau ruanik</w>
nut aġ
nunaaqqi ŋiñun</w>
nunaaqqi miñ</w>
nuna payauraniñ</w>
nuli aŋa</w>
nniaġ aa</w>
niŋ in
niġiug vigi
niġ miñi</w>
niġ ai</w>
niviaqsi at</w>
niv siññi</w>
niv liuti
niv liq
niqsu si</w>
nipaall aŋarut</w>
nimiġi aq</w>
niksr aŋa</w>
nik łuni</w>
nik .</w>
niaġi ŋma</w>
niaġi vsiŋa</w>
niaġ aatigut</w>
niaġ aa
niaqu anun</w>
ni vḷuŋa</w>
ni mni</w>
ni asii</w>
ni aqpi
ni .</w>
naġġu tch
nayuq siuti
nautchirri uti
nau ttaa
nau gani
nasugalu ŋa</w>
napaaqtu mun</w>
nanġ autinik</w>
nalupqinaiy auti
nalupqinai ġñi
nalunaiñŋutch iqsi
nalun autch
nalu r
nalaunŋasiñi at
nalaunŋa va</w>
nal uvlugich</w>
nal aruaq</w>
nakuuru aliq
nakuu ruat</w>
nagliktuutiq paŋa</w>
nagliksaaqti n
nagligi ŋŋa</w>
nag guti
naalaġni su
naal aktu
n niñ</w>
n e
n ati
n .</w>
mumi ksi
muk łuni</w>
mmi gaich</w>
mmatigi k</w>
mman mi</w>
mma rruŋ</w>
mma nni</w>
miḷ uqs
miŋ niglu</w>
miqłiqtu miñik</w>
miqłiqtu m</w>
miqłiqtu liuti
miitchu gnik</w>
mig liqaa</w>
mi taiḷ
mi si</w>
maŋŋuu ptiŋnun</w>
maŋŋu uvut</w>
maŋŋu uv
maŋŋu li
mayu ŋaruq</w>
mauti n</w>
manimmi ḷ
malġuk tun</w>
malu gich</w>
maki nŋarut</w>
maaqtu aq</w>
ma ŋ
ma kiv
makiv saall
ma g
m uktu
lu ŋalu</w>
lu gulu</w>
liv sauq</w>
l o
l gich</w>
kł i
kuv isiŋaruq</w>
kukiḷu ŋaruq</w>
ku ni
ktu ttauq</w>
ksrau rut</w>
ksr aġa</w>
kpi si</w>
kp aŋa</w>
kkaġmi kkun</w>
kkaġ miñun</w>
kkalu at</w>
kka ptiŋnik</w>
kk aŋatun</w>
kk aŋa
kk atka</w>
kiŋuv aali
kivgau qati
kivg amiñun</w>
kiu ŋagik</w>
kipiġni uttaġi
killuku aġuti
ki migliqaa</w>
kaŋiqsi ŋaitkaat</w>
kaviqsu aniñ</w>
kaviqsu anik</w>
katitchi ri</w>
katirru siq
kati tin
kati r
kati nŋagaich</w>
kasima ŋarut</w>
kamanałhaaqtu amik</w>
kamanaqsi ḷiġ
kaman ni
kallu l
kakiḷḷaġn aqtuat</w>
kaaksi u
k łusi</w>
k siññ
k iḷḷi
k ai
k aa</w>
iḷḷ aa
iḷuvvi vik</w>
iḷu mni</w>
iḷitchuġi rugut</w>
iḷitchuġi kamiŋ</w>
iḷitchitqu rau
iḷitchi aġilugich</w>
iḷisima rutin</w>
iḷisaurrutiŋ ich</w>
iḷisaurruti nik</w>
iḷisaurr iq
iḷ uvi
iḷ iḷugich</w>
iḷ iġ
iḷ aŋannun</w>
iḷ aaġ
iłuiḷḷiuġ utigi
iłuaqsi pkaġaatin</w>
iłu atun</w>
iłu aqsivḷugich</w>
iġġi mi</w>
iġġi ch</w>
iññ i</w>
iñuutchi vut</w>
iñuut quvlusi</w>
iñuut quti
iñuusi ŋich</w>
iñuun aqtuam</w>
iñuu ŋaruq</w>
iñuu tuiññ
iñuu pk
iñusal aŋnun</w>
iñupayaa mun</w>
iñuksraqtaa ŋiñun</w>
iñuił̣aa mi</w>
iñu uq
iñi aġai</w>
iñi aġaa</w>
iñ ŋaan</w>
iviġaummatigi lluat
iviġag niaqsiññ
ittu amiñ</w>
ittu ami</w>
itquvlu si</w>
itqu yuma
itqu lugich</w>
itqan ai
itk uvsi</w>
itchu amik</w>
isuu rusi</w>
isumatu ruat</w>
isumaa llu
isuma vlutiŋ</w>
isiġni aġni
isivġi usiaksr
isilaa mnik</w>
isi ġi
isaġuli ŋmik</w>
isaġuli ŋ
isaġul ga</w>
iqtu q</w>
iqsu aq</w>
iqsiññi uġniġmiḷu</w>
iqsitch aŋarut</w>
iq tut
iq saa
iq qaaġ
inmi kku
inill aŋa
in aannun</w>
immu li
imma m</w>
iluqaa ktun</w>
iliŋ ni</w>
iliv siḷi</w>
iliv sivsauq</w>
iliv sigun</w>
ilitqusiqł̣u gnik</w>
ilitqusiqł̣ uum</w>
ilitqu tch
ili ŋi
ilaaguaqtau ruat</w>
ilaaguaqtau ruanun</w>
ilaagu aqsi
ikayuq tiq
ikayu ġumiñ
ikayu ġi
ikayu i
ikarr aq</w>
igḷu ani</w>
igluq pak</w>
iglu a</w>
iglau niksr
igalaur atun</w>
ig uvich</w>
ig niq</w>
i ŋagaa</w>
i ŋa
i ł̣ł̣utiŋ</w>
i lu
h en
gu g
giññ aġlugu</w>
gi kp
gani kami</w>
galu aġnagich</w>
galu aġmata</w>
galu aqpata</w>
gaa q</w>
g utiq
g niaqtut</w>
en j
el -gum</w>
e ri
e o
e ni
di c
aŋuy aktau
aŋm aġumiñ
aŋm aqtuaq</w>
aŋitki ñ</w>
aŋitki ga</w>
aŋit ku
aŋipk aqtitau
aŋayukł iq</w>
aŋalati ttuat</w>
aŋalati n
aŋaiġ ḷugich</w>
aŋaiyyuvikpaŋ mik</w>
aŋaiyyuvi ŋñi</w>
aŋaiyyuvi annun</w>
aŋaiyyuliqsiq paum</w>
aŋaiyyu uġ
aŋa rusi</w>
aŋa niqsuq</w>
aŋa gaak</w>
aŋ isu
ałhiñ aaġ
ałhaaġ ayaqtuq</w>
ałh aa
aġuu rut</w>
aġuk łuni</w>
aġug lusi</w>
aġu tau
aġniġ mik</w>
aġniq pan</w>
aġni ḷugich</w>
aġni ġmi
aġni vḷuni</w>
aġni aġaa</w>
aġmi gaa</w>
aġma gaan</w>
aġl akput</w>
aġalu aqtuŋa</w>
aġ niqsuaq</w>
aġ niqsi</w>
aġ miut</w>
aġ aġi
aġ asugalusi</w>
aġ aqtuq</w>
aġ aanŋa</w>
ayau ŋaruat</w>
ayau ppi
avsaa nik</w>
av saaġ
autigi llaan</w>
aurru siq
aur rau
aun miglu</w>
aullauti vlugu</w>
aullaqti tchi
aullaa qsi
au ŋich</w>
atu ġnak</w>
atu ġlugu</w>
atu kki
att aqsr
atqun aqłuni</w>
atqun aqługu</w>
atqi ñ</w>
atq anik</w>
atk u</w>
atk alu</w>
atigi lugu</w>
ati ŋirruti
ati pkun</w>
ataull asiv
atanniqsima pk
atanniqsi mmati
ataniġnaq un
atanaur auruat</w>
ataa ta</w>
at aqtillugu</w>
asiñ un</w>
arriq aqtuq</w>
arr a</w>
arg aŋi</w>
arg atka</w>
ar ru
aqłu giḷḷu</w>
aquvlu gik</w>
aqu pkun</w>
aqtuksrau ruq</w>
aqtuagu ruq</w>
aqtin nagu</w>
aqtillu gik</w>
aqsiv ḷuŋa</w>
aqsi kpata</w>
aqp aallu
aq siñ
aq qaaġ
aq qaa
aq aqtuat</w>
ao dic
annuġ aiḷ
annuġ aaġ
anni vi
annaurri gi
annaurrau ni
aniŋ ma
aniġ niġi
aniqatigi ich</w>
ani vḷuni</w>
ani qan</w>
ani .</w>
anay an
anau tt
amiġ aiy
alġaqsruutigi vlugu</w>
alġaqsru ivḷuni</w>
alġaqsru ika
alu gich</w>
allakaaġi iñik</w>
alla ruq</w>
all attauq</w>
all agi
al liq
al giññ
al api
al aitchu
akł un
aku gu
aktu anik</w>
aksr auti
aksiu ŋagaa</w>
aksi uk
akka miñik</w>
akiññ aktaa
aki iḷitchiaġilugich</w>
ak tilaaq
aiñ ŋutch
aiñ mi
aitchuutigi vlugich</w>
aitchuutigi lugich</w>
aitchuutau niaqtuq</w>
aitchuusiaq aġniaqtuq</w>
aitchui ruaq</w>
aitch utin</w>
aipi aqtuq</w>
ai p
ai mña</w>
agu rut</w>
aggi si
ag uvlutiŋ</w>
ag ni</w>
ag aksrau
ag ai</w>
ae us</w>
aaġ man</w>
aaqtu aq</w>
aapa mi</w>
aap allu</w>
aa .</w>
a ruatun</w>
Y aqhii</w>
Vash ti</w>
Uqavig aaġutigi
Umialg at</w>
U uktu
Tik iññ
Tavr aŋŋatchiaq</w>
Tainn atchich</w>
Tainn atchi
Tai pkunani</w>
Tai mani
T at
Su t</w>
Su payaat</w>
Su mun</w>
Su liqutau
Solom on</w>
Sivuuġ agi
Sim on-lu</w>
Satan -mun</w>
Sadducee s</w>
S uuŋiḷaġi
S al
Quyyavigi giga</w>
Qaġġi iñ</w>
Qanuġ luni</w>
Qanu tu
Qai ŋaitchuŋa</w>
Q iḷ
Q il
Q akugu
Q aa
Pivi ksraq</w>
Pi yu
Philip -lu</w>
Ph o
P ut
P salm
P riscill
P on
P asi
P aq
Nuk atpi
Ni p
Nathan ae
Nap aaqtu
Nalun aiñŋutch
Nal auti
Naagg auvva</w>
N iġ
N ah
N aal
Mat tath
Mary- ḷu</w>
Mali ŋŋa</w>
M e
L aodic
Kikiaktu uti
K ili
Jude a-m</w>
Joseph -mun</w>
Joseph -gum</w>
John -gum</w>
Jew- guqati
Jerusalem- miḷḷu</w>
Iḷisima gitka</w>
Iḷ aŋata</w>
Iḷ aanni
Iġñi ŋa
Iñ uk
Itqan aiy
Isumaa lu
Isuma nasi</w>
Isu maaq
Iscari ot</w>
Isaa c</w>
Imnaiyaa q</w>
Ili vsiññik</w>
Ig lau
I viġaumagi
I v
I tchaksr
I niq
I mma
Hero dias</w>
God-i ŋata</w>
God-i v
God-i kput</w>
God-i iŋ</w>
Feli x</w>
Ephesu s-mun</w>
Ephesu s-
Egypt -mi</w>
E dom</w>
Damascu s-mun</w>
Cili cia-
Caesare a-
Beth said
B enj
B al
Atau siq</w>
Atani ptiŋnun</w>
At hen
Ar te
Aqu il
Apiqsru qtu
Andr ew-lu</w>
Anani as</w>
An niqsu
Alġaqsru utigi
All atuġnak</w>
Alexand er
Al ph
Aitchu utigi
Ad ar-m</w>
A yau
A ris
A q
-mi ḷḷu</w>
ḷḷ i
ḷu unnii</w>
ḷi uŋ</w>
ŋŋa vsi</w>
ŋŋa pta</w>
ŋu su
ŋiḷḷ utin</w>
ŋiḷ ḷuŋa</w>
ŋiḷ ḷu
ŋiñ miut</w>
ŋitki ksi</w>
ŋitkalu aŋŋa
ŋitk aatigut</w>
ŋit pata</w>
ŋit pan</w>
ŋit pagu</w>
ŋammi gaich</w>
ŋammi gaat</w>
ŋammi gaa</w>
ŋakk aŋi</w>
ŋakk aŋat</w>
ŋaiġ itchi</w>
ŋaitki vsi</w>
ŋagalu aġmi
ŋagalu aġiga</w>
ŋagalu aqtutin</w>
ŋagalu aqtut</w>
ŋa vluŋa</w>
ŋa vich</w>
ŋa q
ŋa niqsuq</w>
ŋa iḷḷ
ŋ niŋa</w>
ł̣h iñau
ł̣h aaŋaruq</w>
łłu ta</w>
łłu gik</w>
łham aaġ
łhaaq ługu</w>
ł aaq
ġñ iq
ġu taa</w>
ġu ruq</w>
ġu pku</w>
ġn ani</w>
ġmi gun</w>
ġli r
ġi yumiñ
ġi ga</w>
ġ matun</w>
ġ iñun</w>
ġ ay
ä at
yumiñaiñ mi
yumiñ aġu
yumiñ aqługu</w>
yumiñ aqpauŋ</w>
yumiñ aiġ
yumiñ aitkaa</w>
yumiñ aitchut</w>
yumagi ktik</w>
yuma giñ</w>
yaqtu ġlugich</w>
y rr
yrr h
y -
viksr aq</w>
vi ksrau
vi kaa
vai ł̣
v ḷutiglu</w>
v saaġ
v r
v isa</w>
uŋiarris aġi
uŋiarr isi
uġuti t</w>
uyaġaŋ mik</w>
uvluġi aq</w>
uvlu tu
uvlu qtu
uvluqtu tilaaŋatun</w>
uvlu kkalu
uvlu a</w>
uvisi uŋ</w>
uvaŋa ġruiññaq</w>
uvap ti
uvagu k</w>
uur amikunnii</w>
uummati vsiññiñ</w>
uumigiri tin</w>
uuma ruur
uuktu aqtau
uu maŋŋa</w>
uttagayu ich</w>
utqi kkumiñ
utiq łutiŋ</w>
utiq ami</w>
utigi ŋitki
utigi ŋagaa</w>
uti ŋaruk</w>
uti ġu
uti sitchi</w>
utaq q
ur aġni
uqtu ŋa</w>
uqtu all
uqti n
uqaġni aqtillu
uqaġniaqtillu gusuli</w>
uqavig aaġutiq
uqav aaġuti
uqautigi ŋagaa</w>
uqausi usi
uqausi atun</w>
uqaqti ŋiñik</w>
uqaqtau ŋŋuaqtuat</w>
uqaqtau ŋŋu
uqaqtau ruaq</w>
uqaqsitaaqtitchir iñun</w>
uqamaqłu uti
uqam aqłuk
uqaluŋ migun</w>
uqaluq aqtut</w>
uqalu ŋisa</w>
uqallaŋ man</w>
uqallauti lugu</w>
uqallausiġi giga</w>
uqallaktu ni</w>
uqallak siññ
uqallak ku
uqal laa
uq suli</w>
uq aġman</w>
uq aġi
uq ayu
upku aqpaŋ
upku aq</w>
unnu apak</w>
unniqsuqłiisigi ŋakkaŋich</w>
unniqsuqłiisi ŋi</w>
unniqsuqłiisaa nik</w>
unniqsuqłi iŋaruq</w>
unniqsuqłi iñ</w>
uni pk
uni ,</w>
unaŋuiqsi ġ
un n
un aŋŋa</w>
umiaqpag aqtit</w>
umialiŋn aŋich</w>
umialiŋn anullu</w>
umialig mun</w>
umialg at</w>
umialg annun</w>
ulġu ŋaruq</w>
ull aŋagai</w>
uku ak</w>
uktu gut</w>
uktu at</w>
ukpiġnaqtu agu
ukpiġnaqsi ḷi
ukpiġi ŋagaat</w>
ukpiqtuagu ruaq</w>
ukpiqsi maaġ
ukpiliqu galu
ukpiliqugalu aqługich</w>
ukpiliq uvlugich</w>
ukpi quvlusi</w>
ukpi quvlugich</w>
uk kav
ui ŋa</w>
ug lu
ug aur
ug aich</w>
u tch
u rut</w>
u q</w>
u palu
u ma
u iñi
u gi
tuyu ġi
tuyu utitigun</w>
tuy uqtuq</w>
tuvaaq atau
tuttuq pir
tuttuq pak</w>
tuttuq paich</w>
tutquq si
tutqiutiq aqtillu
tut tu
tusaayugaaġiksu aŋanik</w>
tusaa ŋagiga</w>
tusaa vlugu</w>
tusaa ruaq</w>
tusaa gani
tusaa galu
tuqun ŋagaat</w>
tuqu ŋaruaq</w>
tuqu ŋaru
tuqu ruat</w>
tuqu rrutau
tuqurrutau yumiñaqtuamik</w>
tuqu ni
tuqu mman</w>
tuqu lla
tuqqu taagun</w>
tuqqu taa</w>
tuqqu rri
tuq qunmik</w>
tupqu m</w>
tuniuq qairuat</w>
tun malu
tukku ma
tu tqu
tu nun
tu llu
tquvlu gik</w>
tqu yuma
tqu luŋa</w>
tk uvsi</w>
tiŋmi aqp
tiŋin naaq
tiŋin naa
tiŋil ġai
tivraġiksau n</w>
tiriqti nniaġ
timi tun</w>
timi t</w>
tilisi ruaq</w>
tilirau ŋaruat</w>
tili ŋagik</w>
tili vḷugu</w>
tili ri
tilaa vsiññik</w>
tilaa qsi</w>
tikiññ amiŋ</w>
tikiñ ñiaqtuq</w>
tikitchu maaqtuq</w>
tikitchi aġivlugu</w>
tiki ł̣ł̣uta</w>
tigutaaqt at</w>
tigutaa q
tiglu k
ti ġlir
ti ä
ti tch
ti ni</w>
ti ik
th i
taŋŋ iġ
taŋiġ iḷ
taġ ġ
tavrani inŋarut</w>
tautukka tin</w>
tautuk siḷ
tautuk ki
tautug niaġaat</w>
tautu ŋagitka</w>
tautu ŋagik</w>
tautu ŋ
tautu qu
tautu lgi
tautu ktuat</w>
tauqsiq suġ
tau ŋaruq</w>
tau ruat</w>
tau ruaq</w>
tau nnii</w>
tatqi q</w>
tatchi mun</w>
tatavsau taa</w>
tar ch
tap utivlugich</w>
tamat tu
tam au
taluki yaa
taiḷ iq
taitchu amik</w>
tainnatchi mik</w>
tainnain niġmata</w>
tainna ptauq</w>
taimm aasii</w>
tai vrumani</w>
tai mñ
tai mma</w>
taav ani
taaqsi ŋaruq</w>
taaptu ma</w>
taapkunu ŋa</w>
taapkun aŋŋa</w>
taamnau ruq</w>
taal avsaanik</w>
taaguŋa tchianun</w>
taa ma
taa ll
t aqi
t akk
t aki
suŋa iññ
suġautch iqiri
suġalli ruat</w>
suġali ŋi</w>
suġal liq
suġ mi
supayaur amik</w>
sulliñi payaur
sull iñiq
suliqutigiŋa iġ
suksraunġiqsau yumaaqtu
sug lugich</w>
suaŋŋasiq sau
suaŋŋan migun</w>
suaŋŋa taanik</w>
suaŋasiḷ aaq
su utilaa
su kk
su am
suam mauti
su alu
st r
siḷivi łługich</w>
siḷ utiŋ</w>
siġḷiġ nai
siñi kti
siñi ks
siñ aanun</w>
sivunni utaa</w>
sivuniġi vlugich</w>
sivuniq aqługu</w>
sivulli ġi
sivu niŋa</w>
sivu ni
sivu lliq
siv ḷuta</w>
siv ukki
siv sisun</w>
siv si</w>
sitqu ŋaruq</w>
sisama nik</w>
siiġñ at</w>
sigi ñ</w>
si ŋi
si ut
savaq ati
savaktu aq</w>
savaagu ruat</w>
savaagu mman</w>
savaa ŋanik</w>
savaa q</w>
savaa ksri
sav akłuni</w>
sav aktuat</w>
sav airvianni</w>
sau mi
satqummi ġñi
sapiġñ aqtuam</w>
sani qq
sagluqi rau
saglu nik</w>
s ałhiñaaġ
s aġlusi</w>
s aġalu
s atq
s at
sat ku
s ag
ruksrau pi
ruati tun</w>
rua tin</w>
rua ni
ru ksrautilaa
rraqsi ŋagaat</w>
ri ŋ</w>
ri ruat</w>
raġ aġni
r an</w>
quviatch aktitau
quviatch ak
quviasu utiq
quviasu uti
quviasu usiaksr
qutchiksu akun</w>
qutchi ksuamun</w>
ququul a
ququu ll
quliŋŋuġuti ŋiññik</w>
qu tch
qu ppi
qu laanun</w>
qsu q</w>
qiññuaqtu uti
qiññ aġi
qiñu iġ
qiñiġ naqsi
qimi tchi
qil ami
qiku yy
qi maa
qaŋ ma</w>
qaġġisi ŋagaich</w>
qaġġisi ŋagaa</w>
qaġġisi tquvlugu</w>
qaġġirri ŋarut</w>
qaġ miuŋa</w>
qaġ man</w>
qaġ itchi</w>
qaunaksri ruat</w>
qaunagi lluat
qaummaġi ksu
qaummaġi ksi
qaumm aġmik</w>
qaumanġ anik</w>
qanġ aniñ</w>
qanusiḷim aat</w>
qanusipayaa mun</w>
qanuq pisi
qanu ġni
qallugaur aq</w>
qalli mman</w>
qaiḷ iqtuq</w>
qaiñ ŋagaa</w>
qaiñ asu
qaiyumaaqtu aq</w>
qaiyasi ruq</w>
qaitqi kpan</w>
qai silaaŋanik</w>
qai silaa
qai pk
qaa n</w>
qa iḷḷ
q sru
q av
puvi aluŋ
puttuqsri pk
puttuqsr ikamiuŋ</w>
pun ŋaruq</w>
pu yu
ptiŋ niḷḷu</w>
pq itch
pkunu ŋa</w>
pka iḷḷa
pka iñi
pk aġai</w>
pk aqtillugich</w>
piḷġusikaa misun</w>
piḷġusi atitun</w>
piḷuuti nik</w>
piḷuutaitchu akun</w>
piḷuusiqiri llu</w>
piḷuusiqi ri</w>
piḷuun mi</w>
piḷuksisuguu ruanun</w>
piḷuksi ñiksr
piḷu utau
piŋayu anni</w>
piŋasu iqsu
piñi aqtilaaŋanik</w>
piñaġumiñ aqpan</w>
piñaiḷ ut
piyumaaqtu atigun</w>
piyumaaqtu at</w>
piyu mmatigi
piyu mmati
piviuttaġi pi
piviuttaqsr iñ
pitqur aŋisigun</w>
pitqur aŋisa</w>
pitqur aŋich</w>
pitqur aq</w>
pitqur aniñ</w>
pitqur ali
pisuu taagun</w>
pisu utin</w>
pisu aġiñ</w>
pisi n</w>
pisi lugich</w>
pisaa suġmi
pis aġi
piqatau tquvlusi</w>
piq utiq
piq aġ
piq aqłuni</w>
piksraqtaaġi ŋagaaŋa</w>
pigiił̣h aaġ
pigiitchu anun</w>
pigiitchu amiñ</w>
pigi iḷḷ
pigi gaa</w>
piaġat aqłuni</w>
piani kpata</w>
pi ŋagaat</w>
pi tuq
pi ruakun</w>
pi kavsi</w>
pi kami</w>
pi aŋaruq</w>
pi aġikpiñ</w>
pi aqługu</w>
pi aq</w>
ph yli
paŋ miñ</w>
paġl a
pay ar
pay aaq
pau ŋ</w>
pasiñ ñi
paq il
paptaiqsau ŋarut</w>
paptai ġutiq
pani a</w>
palauvaksraġi itchuat</w>
palauvaksr aġuġni
paaqł iġñi
paa ŋagaat</w>
paa llu
p uku
p aur
nutch ug
nutau ruam</w>
nunau rua
nunaq aŋa</w>
nunami glu</w>
nunagluktu ami
nunaaqqi payaanun</w>
nunaaqqi m</w>
nuna payaanun</w>
nuna payaani</w>
nun aŋani</w>
nukatpi aq</w>
nuk sr
nuk aalu
nu taaġ
niġġi viŋñi</w>
niġiiḷḷaqtau ŋarut</w>
niġi ŋarut</w>
niġi ruat</w>
niġi ruaq</w>
niviaqsi am</w>
niv liqsu
niqsu at</w>
niqinaq iyaqtu
niq łi
niq pan</w>
niq avsigik</w>
niq aiḷḷi
nipitirruti t</w>
nipauqłukt aŋaruq</w>
nipatu vlutiŋ</w>
nipan ŋaruq</w>
nipaal aŋarut</w>
nipaal aŋaruq</w>
nimiġiaqłu um</w>
niksr aqput</w>
niksr amun</w>
niaġmi giga</w>
niaġi kput</w>
niaġ miut</w>
niaġ aaŋa</w>
niaġ aanŋa</w>
niaqu ġusi
niaqu a</w>
niaq uġuti
niaq qu
ni ḷuta</w>
ni ŋat</w>
ni viŋ
ni mm
ni ittuq</w>
ni aqtugut</w>
ne si
naŋirru tiq
naġġun apiaġat
navi anni
nav gu
nausaiññ aġniŋa</w>
nauma łhaaqtuq</w>
nau vlutiŋ</w>
nau ruanik</w>
nasugalu gich</w>
naqtu siuvva</w>
naqtu q.</w>
napaaqtu a</w>
nanġausi aksr
nanġ aġlugu</w>
nan ġaq
nalupqinaiġ ḷugu</w>
nalupqinaiy autau
nalupqinai ŋagaa</w>
nalunaiñŋ utaq
nalunai qsi
nalliummatiŋ itchuŋa</w>
nalliummatiŋ itchuq</w>
nalliummati ruamik</w>
nalli at</w>
nalautin man</w>
nalaunŋaru aliqini
nalaunŋaru akullu</w>
nal u</w>
nal liqsi</w>
nal autchi
nal aul
nakuu ruaq</w>
nakuu ruanik</w>
naku utilaaŋanik</w>
naku utilaa
naitchu aq</w>
naitchu ami</w>
nagru q
nagliktuutiqpaq aġli</w>
nagliktuutiqpaq aqłuni</w>
nagliktuutiq paŋ
nagliktuutiq p
nagliksaaġ viŋmun</w>
nagliksaaqtu ksrau
nagliksaaqtirrusi at</w>
naamasi ḷugu</w>
naalaġniḷ ḷuat
naa tch
na tualuu
na q</w>
na ptiŋni</w>
n ŋaruaq</w>
n uqaqti
n nag
n mata</w>
n at
n ani</w>
mun -aglaan</w>
mu ŋaaglaan</w>
mu ŋa
mmi giga</w>
mma gich</w>
mma gaan</w>
miḷḷu uġ
miḷuqs auti
miŋŋa qtu
miñ ullu</w>
miqłiqtuur atun</w>
miqłiqtu tiŋ</w>
miqłiqtu nik</w>
miqłiqsi ḷ
mi utaq
mi n
maġi ksaa
mau ŋa</w>
maqi pkaqługu</w>
maqi pkaqtau
maniq aġvi
mani aqtut</w>
mali gu
mal u</w>
mak ä
maaq ługu</w>
maa na
ma y
ma su
ma rra</w>
ma nik</w>
m ġi
m miñiqsuq</w>
li mman</w>
laa qsi</w>
l ġat
l gu
l -gum</w>
kł utin</w>
ku nik
ktu ksranik</w>
ksrau rusi</w>
ksr aŋaniñ</w>
ksr at</w>
ksr aqput</w>
kpa tin</w>
kpa rruŋ</w>
kpa gich</w>
kk aŋich</w>
kk avsi</w>
kiḷḷiġruaqtuqtu at</w>
kiŋuvaannaktaa ksrauti
kiŋuni ŋisa</w>
kiñ a</w>
kivr iñ
kivg aŋi</w>
kivg anik</w>
kiv ut</w>
kiv gaaq</w>
kiu ŋagaich</w>
kiu ŋagaak</w>
kiu ni
kisi ŋŋuġ
kisi mġi
kisi ma</w>
kipiġni upiaġat
kipagi ŋagaat</w>
kin naġ
killuku aqtigi
kiliktu utaa</w>
kil gu
kikiaktuurrau qatau
ki pagivlugu</w>
ki lu
ki apayaaq</w>
kaŋiqsiḷ ait
kaŋiqsiñ aitchuamik</w>
kaŋiqsi ŋa
kaviqsu at</w>
kaviqsu amik</w>
kavanau ruaq</w>
kap puti
kanŋu su
kanġaqsru i
kamanaġniqsrau ruq</w>
kamanau taanik</w>
kamanaqsi ḷi
kaman auti
kaman aqtuami</w>
kamaksri ŋiññi
kamagi vlugu</w>
kamagi vlugiḷḷu</w>
kamagi ug
kamagi tqulugich</w>
kamagi sigik</w>
kamagi l
kama naitchu
kakiḷḷaġn aqtuanik</w>
kakak siqsu
kak av
kakav y
k tauq</w>
k t
k alu
iḷḷ atigilugu</w>
iḷuvvi viŋ
iḷuv siññiñ</w>
iḷu ptiŋ
iḷitchuġi niaqtut</w>
iḷitchitqur ak</w>
iḷisima ŋaruq</w>
iḷisima vluni</w>
iḷisima giksi</w>
iḷisima galu
iḷisauti lugich</w>
iḷisausi aġi
iḷisaurrutiŋ iñik</w>
iḷisaurruti t</w>
iḷisaurru n</w>
iḷisaurri yumiñ
iḷisaurr iñi
iḷisaurr ich</w>
iḷisaurr i</w>
iḷiappau ruat</w>
iḷi ŋagaich</w>
iḷi ŋagaa</w>
iḷi vḷutiŋ</w>
iḷaŋ i</w>
iḷaku nik</w>
iḷ ḷugu</w>
iḷ isuu
iḷ ari</w>
iḷ aaq</w>
iłuaqsirau ŋaruq</w>
iłu aqtu
iġñiġi ñ</w>
iġñi ġa</w>
iġñi ġ
iġ ġiñun</w>
iññiqsr au
iññiqsr api
iñuŋ nullu</w>
iñuutquvlu ta</w>
iñuutchi si</w>
iñuutchi ma</w>
iñuuniaġniġ mun</w>
iñuu su
iñuu rut</w>
iñuu ruanun</w>
iñuu ruanik</w>
iñuu niaqtut</w>
iñuu li
iñuk tigun</w>
iñugruiññ aum</w>
iñugiaktu aniñ</w>
iñugiaksi saiññ
iñugg unmiñik</w>
iñu uvluni</w>
iñu gu
iñiġ miñ</w>
iñiq si</w>
iñi kun</w>
iñi aqtuŋa</w>
iñ iglu</w>
iyaqtu qłuni</w>
iv ay
ittu aniñ</w>
itqatigi lisi</w>
itqatau ŋaruq</w>
itqan aiqsi
itku mi</w>
itkalu aqtuq</w>
itk aat</w>
itilaa ŋannik</w>
it pisi</w>
it kivsiŋa</w>
isuu ruq</w>
isumalluaġiitchu atun</w>
isumalitqi ksu
isumalitq iquvlugich</w>
isu mmatiŋ
isu mmatiq
isu an
isiġumiñ aitchuq</w>
isivġiġ vi
isivġiqsi mun</w>
isivġi ivi
isig aŋi</w>
isi vi
isi tun</w>
isi qti
isi qsi
isaġuli ŋmun</w>
is h
irrusi ġi
iqsu q.</w>
iq sri
ipiġaqtu qti
ipiqtu su
inna :</w>
iniqpaŋ nun</w>
iniq paŋani</w>
iniq pag
iniq pa
iniq p
in nivḷugu</w>
in miŋni</w>
in man</w>
in aur
in ai
imiġ uksi
imi ġni
imi qti
iluqaa niñ</w>
iluq atik</w>
iluq aanun</w>
iliv si
iliv iḷḷu</w>
ilitqusiqł̣uq aqtuam</w>
ilitqusiqł̣u ŋi</w>
ilitqusi q</w>
ilaaguaqtau ŋaruanik</w>
ilaaguaqtau ruanik</w>
ilaagu ruq</w>
il e
il aisi
ikł̣igutchakti nniaġ
ikuala ruatun</w>
iku al
ikipkai vium</w>
ikipk aqługich</w>
iki ŋaruq</w>
ikayuq u
ikayu utaagun</w>
ik avsi</w>
igḷutu ġumiñ
igḷu anun</w>
igniġuuq pati
igniġ mi</w>
igluqpi rit</w>
igluq pa
igitau ŋaruq</w>
igi łługich</w>
ig li
i ŋi
i łłutiŋ</w>
i yu
i rau
i p
i miqł
h utik</w>
h o
gñ iqsr
gu ruat</w>
god- au
god- aiḷ
gniaġ asugalugu</w>
galu aqpan</w>
g naqtusiuvva</w>
g ayuktu
g aniŋman</w>
g ai
en e
e z
e d-
e a-mi</w>
c us</w>
c oni
aŋuyau tairru
aŋuyaktiŋ isa</w>
aŋuy auti
aŋitki vsi</w>
aŋitchu gut</w>
aŋitchu anik</w>
aŋit kai</w>
aŋi pkaġni
aŋayuqaa k</w>
aŋarraur ani</w>
aŋan niñ</w>
aŋalatch iḷḷuat
aŋalatch iñi
aŋal ayy
aŋal atk
aŋaiyyuyaqtu qłuni</w>
aŋaiyyuvikp aŋa</w>
aŋaiyy uvlutiŋ</w>
aŋaitchu ŋa</w>
aŋa tku
aŋa tigun</w>
aŋa k</w>
aŋa iñŋa
aŋa givsi</w>
aŋ iq
ałh am
ałh aaq</w>
aġup kich</w>
aġug lugu</w>
aġu ŋaruq</w>
aġna mik</w>
aġn atiŋ</w>
aġmi gai</w>
aġmi gaasi</w>
aġlu siḷu</w>
aġlu giḷḷu</w>
aġlu gik</w>
aġi ŋis
aġi tin</w>
aġat aqtillugu</w>
aġ viŋ
aġ uvsiŋa</w>
aġ nau
aġ naq
aġ miugut</w>
ayau ŋaiqsi
avilait qat
avataa gun</w>
av in
autigi ŋagaat</w>
aullauti ŋagaa</w>
aullarri si</w>
aullaqti t
aullaqisaa miñqaŋa</w>
aull aŋaruŋa</w>
au ni</w>
atukki rrutigi
atiq aqtuami</w>
atin ġiq
atausiŋŋuqatigi ŋagikput</w>
atausiŋŋuqatigi maaġ
atausiŋŋuqatigi kaptigu</w>
atausiullaa vluta</w>
atausi sualu
atau ŋaruq</w>
atau ruq</w>
ataniġnaqutiq aqtuanun</w>
ataniġ mi</w>
atanaur allu</w>
at alu</w>
at -unnii</w>
asug aluni</w>
asiḷiq quti
asiñ uuti
asiñ uu
asi ŋaruq</w>
arraqsi ŋagai</w>
argu asu
argu an
argu agi
argaŋ miñik</w>
aquppiut aŋiññi</w>
aquppi ruat</w>
aqu ŋił̣ł̣usi</w>
aqtillu tiŋ</w>
aqtilaa ġa</w>
aqtilaa ptiŋnik</w>
aqtilaa miñik</w>
aqtilaa mik</w>
aqti k</w>
aqsiv ḷugiḷḷu</w>
aqsi ŋarut</w>
aqpi uŋ</w>
aqp ani</w>
aqp alli
aqami rruŋ</w>
aq unnii</w>
aq taaġ
aq aqłutiŋ</w>
aq ap
aptiŋ ni</w>
apquti t</w>
apiqsruq tuq
apiqsri aġi
apiaġat aqługu</w>
apiaġat amik</w>
api aġlugu</w>
ap tigun</w>
ap ai
ao h
anuġ aksi
annuġaa ġi
annuġaa lu
annuġaa gi
anniqsuutau ŋitchuq</w>
annauti yaqtuq
aniqatigi ik</w>
aniqati ga</w>
aniqan miñik</w>
ani ḷḷu</w>
ani ktuq</w>
ani kku
ani kama</w>
anayan aiy
anay a
an s</w>
ami ñiñ</w>
am aqqu
alġaqsruiñiġ a</w>
alġaqsruika ma</w>
alġaqsrui ri
alġaqsrui mman</w>
alġaqsru uti
allau ruanik</w>
allau ruamik</w>
all aniglu</w>
all akkalu
algi tch
al ġai
al uq
akuqtu ruanik</w>
akun naptiŋni</w>
akul ai
akulai sigilugu</w>
aksr aq
akku pak</w>
akkaŋ iññik</w>
akkalu ami</w>
akiḷḷiḷiqsuuti ruat</w>
akiḷiġñi aġaasi</w>
akiḷi usi
ak äa</w>
ak ä
ak sau
ak kun</w>
aiḷḷ uni</w>
aił̣ł̣u gu</w>
aiññi vḷugu</w>
aiñ ŋagaat</w>
aiñ miuq</w>
aiyugaaqtau ruat</w>
aitki si</w>
aitchuutigi sukługu</w>
aitchuutau ŋaruanik</w>
aitchuusiaq aŋa
aitchui yumiñ
aitchui mmatun</w>
aitchu ŋagai</w>
aitchu ġ
aitchu akun</w>
aimaaġ viŋmiñun</w>
ai ŋa
ai ñ</w>
ah -mun</w>
aglausima ruatun</w>
agl ausi
agl aq
agi ḷ
ag lugu</w>
ag aqsi
ag a</w>
ag -mun</w>
aaqtu anik</w>
aaqsi mman</w>
aap aŋa</w>
aaka niḷu</w>
aak allu</w>
aa yy
aa qu
a sri
a siq
a payaurat</w>
Zi on</w>
Zechari ah-m</w>
Xerx es-gum</w>
Vash ti
Uv vau
Uumi gi
Ukpiġutiq aqłuni</w>
Ukpi ŋŋu
U nauvva</w>
Tuyu utaurut</w>
Tuunġ aġmun</w>
Tigu lugu</w>
Tigu lugich</w>
Tig lig
Tavr aŋŋa</w>
Tar su
Tamatku niŋa</w>
Tain nai
Tai vrumani</w>
Taa ptu
T il
Sy ri
Suliq utigiŋa
Su aŋŋa
Ste ph
Sivisu ruamik</w>
Si ku
Savaiññi ŋat</w>
Sav aitchuani</w>
S uuramikunnii</w>
S inai
S aag
Rom e-mun</w>
R e
Quviqtaiḷisi tchi</w>
Qaġ ġisi
Qapi ŋa
Qai ñ</w>
Q isiqsi
Q in
Piḷu utitin</w>
Piḷ uksi
Piviutt aq
Pi tu
Pho eni
Phili ppi
Pharisee- m</w>
Phar aoh
Per g
Pam phyli
P uvl
O nesi
O b
Nun aliqiri</w>
Nun aaq
No ah</w>
Niqinaq ivi
Nico de
Ni pai
Nazareth -miu
Nalupqi naitchuq</w>
Nalunaiñŋutch iqsau
N utau
N ivi
Melchizedek -gum</w>
Mar k</w>
Mar k
Macedonia- miñ</w>
Macedoni a-mun</w>
M aŋŋu
M arra</w>
M ani
M ah
Ly str
Kipiġni uġ
Kil lu
Kikiaktuuti li</w>
Kig guti
Kama na
Joppa -mun</w>
Jew-gu ŋitkalu
Jew-gu ruaniñ</w>
Jew-gu payauraqtuat</w>
Jesu s
Jacob -lu</w>
J as
Iḷisima rutin</w>
Iḷ isi
Iḷ aŋisa</w>
Iḷ aŋ
Iġñiġi gikpiñ</w>
Iġñi ġa</w>
Iġñi iŋ</w>
Iñu payaam</w>
Iñu aġnak</w>
Iviġaumagi gupku</w>
Isumalitqi gitchi</w>
Israel-gu ruasii</w>
Isivġi ġ
Iqsiñ asi</w>
Ilitqu siqł̣u
Ika yu
I nna</w>
I laa
I coni
H am
Greec e-
God-iv li</w>
God-i vlu</w>
God-i ptauq</w>
God-i n</w>
God- ti
God- miŋŋaqtau
God- lu</w>
Galilee- ġmiugu
Gal ati
Elijah- u
E sau
E pa
Damascu s-mi</w>
Cyr ene-
Cyp ru
Christ -lu</w>
Benj amin
Beelzeb ul
Bal aa
Aġna m</w>
Aġn at</w>
Avilait qaan</w>
Atanġu ptuq</w>
Atanġ ata</w>
Atani kun</w>
Arte mi
Aris tarch
Aquv atigun</w>
Apollo s</w>
Antioch -mi</w>
Ann auti
An na
Agl auti
Ag gi
Ag ag-mun</w>
Ab i
A nni
A m
A liuġ
A ak
- miḷu</w>
- miittuat</w>
ḷu guunnii</w>
ḷu gulu</w>
ḷ uti
ḷ uk
ŋŋa qt
ŋiḷḷ uni</w>
ŋiḷ ḷuta</w>
ŋiññi ġ
ŋiññ avsi</w>
ŋiññ agich</w>
ŋiñmi gaa</w>
ŋitk aaŋa</w>
ŋitchu amiñ</w>
ŋit pich</w>
ŋit pauna</w>
ŋit pa
ŋi ł̣ł̣
ŋi ł̣
ŋatilaa vsiññik</w>
ŋaru aġlu</w>
ŋar aġa</w>
ŋar ani</w>
ŋaniġ a</w>
ŋakka n</w>
ŋaiġ ḷusiḷu</w>
ŋaiñŋa ġmi</w>
ŋaiqsu gut</w>
ŋagi tin</w>
ŋagalu aġaat</w>
ŋagalu aqtillugu</w>
ŋagaa tin</w>
ŋa ŋnik</w>
ŋa su
ŋa nunaglaan</w>
ŋa mmiusi</w>
ŋa mman</w>
ŋa llu</w>
ŋa gumi</w>
ŋ nak</w>
ŋ iñullu</w>
ŋ itch
ł̣ł̣u gich</w>
ł̣u ŋa</w>
ł̣u niḷu</w>
ł̣ usiḷu</w>
łu siḷu</w>
łhamaaqtu amun</w>
łhaaqtu amik</w>
łh aiññ
ġumiñaqsi ḷugu</w>
ġug lugich</w>
ġu ŋaruq</w>
ġu uti
ġu miuŋ</w>
ġu mauq</w>
ġu maaqtuq</w>
ġisi maaġ
ġiq su
ġi ksi</w>
ġi ich</w>
ġi aġlugich</w>
ġat aqtillugu</w>
ġ ḷugu</w>
ġ uvlu</w>
ġ uqtu
ġ ru
ġ nai
ġ magu</w>
ġ m
ġ lutin</w>
ġ aġi
ġ aqsi
ñi ŋa</w>
ñi aġaat</w>
ñ iq
ä ni
ä aq
á uni</w>
à ñi
yumiñaiññi vḷugu</w>
yumiñaitki ga</w>
yumiñaitchu anik</w>
yumiñ aġluni</w>
yumiñ aġlu
yumiñaġlu ŋaunnii</w>
yumiñ aqłuni</w>
yumiñ aqtut</w>
yumiñ aqpa</w>
yumiñ aitkalu
yumiñ ait
yumau gut</w>
yuma gisi</w>
yuma giksi</w>
yaqtu ġlugu</w>
y uktu
y chi
y aġ
y ati
yati r
wine- ŋanik</w>
wine- liuġ
vḷu gulu</w>
vsi unnii</w>
vsaa ŋaruq</w>
vsaa ġivsi</w>
viŋmu g
vigi vlugu</w>
vi sigiñ</w>
vi gich</w>
vi at</w>
vaił̣ aktuaq</w>
v siññiglu</w>
v saaq
v it
v at</w>
v alli
uŋiar iñasi</w>
uŋi ari
uŋasi ksuamun</w>
uŋall am</w>
uŋa lu</w>
uŋa itchitchi</w>
uŋa i
uġ lugu</w>
uyaġaŋ mun</w>
uyaġau ruamun</w>
uyaġag nik</w>
uvlu ġman</w>
uvlu tqiŋman</w>
uvlu paŋ
uvlu niḷu</w>
uvlu m</w>
uvlaa k
uvi gi
uvaŋa u
uvaptiŋ ni</w>
uvap tuġ
uvaptuġ ruiññaq</w>
uvap tigun</w>
uv at</w>
uunnau tai
uunnautai ŋaruq</w>
uuktu ġukługu</w>
uuktu usi
uuktu aqsaqługu</w>
uu siqi
utuqqau ruaq</w>
utt aq
utiq p
utiq aqłutiŋ</w>
utigi ŋagaat</w>
utigi nagu</w>
utigi mmatun</w>
uti ŋich</w>
uti ŋagaat</w>
uti ġni
uti ġ
uti tuqtu
ut quti
ut qu
ut q
ut aiy
ur at</w>
ur aq
ur aaqtu
uqł utiglu</w>
uquma isilaa
uqti nŋagai</w>
uqaŋa iq
uqaġuu rut</w>
uqaġataviksi llu
uqavig aaġuti
uqavig aaġ
uqavig aa
uqav aaqatigi
uqautigi ŋakkaŋa</w>
uqauti ŋagai</w>
uqauti kkusiaq
uqautchi kun</w>
uqausi kun</w>
uqaluq aqtuat</w>
uqaluksri usiaq
uqaluk tin</w>
uqalu si</w>
uqalu anun</w>
uqallaŋa mmiuq</w>
uqallaŋa itchuq</w>
uqallauti ksraq
uqallauti kpasi</w>
uqallauti giññ
uqallausiġi ŋagaat</w>
uqallaktu ŋa</w>
uqallaktu tin</w>
uqall aŋaruŋa</w>
uqall aŋaruaq</w>
uqall ausiatun</w>
uqall ausi
uqall atqiŋaruq</w>
uqall asiŋaruq</w>
uqal uv
uq uvlugich</w>
uq i
uq aġ
uq aqtuŋa</w>
uq aqtutin</w>
uq aaġutigi
upku i
unnu ani</w>
unnu akkaluami</w>
unniqsuqłiisi ŋiñik</w>
unniqsuqłiisi aq
unniqsuqłii ŋagaa</w>
unniqsuqłi iñ
uni at
unaŋu iq
un miŋnik</w>
un asugi
umiaqpaur aq</w>
umiaqpaur amiñ</w>
umialiŋnau ruaq</w>
umialiŋna q</w>
umialiŋna m</w>
umiali ŋi</w>
umiali kp
umi ur
umi alli
ullakk uvsi</w>
ullaa ŋagaat</w>
ukunu una</w>
uktu q</w>
ukpiġutiq aġni
ukpiġuti ŋich</w>
ukpiġuti ptigun</w>
ukpiġuti ksi</w>
ukpiġutai rru
ukpiġun migun</w>
ukpiġu taitchu
ukpiġu rvich</w>
ukpiġi yumiñ
ukpiġi vlugu</w>
ukpiġi nagu</w>
ukpiġi kkaqput</w>
ukpiġi kka
ukpiqtu gut</w>
ukpiq sr
ukpili ġmata</w>
ukpi ŋarut</w>
ukki vsi</w>
ukkav siññik</w>
ukk aŋat</w>
ukk aa</w>
ukił̣haa ġiksuamik</w>
ukił̣h aat</w>
ukiu tuaġman</w>
uk unani</w>
uk un</w>
uk tuq.</w>
uk tit
ui ŋata</w>
ug aqsivḷutiŋ</w>
u ŋu
u ŋagaat</w>
u taata</w>
u s-gum</w>
u mmi
tuŋaa ŋani</w>
tuvr ai
tuun ġ
tuttuqłu gnun</w>
tuttuq p
tuttuqp aiy
tutqi ksi
tutqi k
tusiattu allu</w>
tusaġn aŋaruq</w>
tusaqsr aġi
tusaayugaaġiksu aŋiñik</w>
tusaayugaaġiksu am</w>
tusaayugaaġiksu akun</w>
tusaa ŋaruq</w>
tusaa ŋagikput</w>
tusaa ŋagaich</w>
tusaa r
tuquŋa ruanik</w>
tuqu ġaq
tuqu llugu</w>
tuqu l
tuqquti kun</w>
tuqqun mun</w>
tuq ługich</w>
tupi ġmi</w>
tugli a</w>
tualu k</w>
tu ġni
tu s-lu</w>
tu aksr
ttu akun</w>
tquvlu ŋa</w>
tqu ŋił̣ł̣ugich</w>
tqi ŋagai</w>
tqi ŋagaa</w>
tki k</w>
tk alu</w>
tk aat</w>
tivraġi ksu
timiq aqłuni</w>
timi tiŋ</w>
timi mun</w>
timi mik</w>
timi gi
timaa nun</w>
tiliñi aġai</w>
tilirau ni
tilir iga</w>
tilir aŋa</w>
tili ŋatilaamnik</w>
tikiñ ŋaruk</w>
tiki ł̣ł̣utiŋ</w>
tik itq
tik itkuvsi</w>
tik it
tigutaaġ viŋmiñ</w>
tigutaaġ vium</w>
tigutaaqt anik</w>
tigutaa qs
tigu ŋagaat</w>
tiglu ktu
ti łługu</w>
ti us</w>
tchuu gaich</w>
tch ukługu</w>
tch iḷu</w>
tch iġ
tch aiḷ
taġiumi glu</w>
taġiu tun</w>
taġi uġni
tav ru
tautuŋa visigiñ</w>
tautukti t
tautukti nni
tautukka miuŋ</w>
tautugi aqługu</w>
tautug niaġiksi</w>
tautu ŋavlugu</w>
tautu ŋar
tautu ŋakk
tautu tqigñi
tautu kamigich</w>
tautu ani
tau ġ
tau tigi
tau ruq</w>
tatqi ŋani</w>
tatqi mi</w>
tatavsausi aksr
tatavsau n</w>
tatavs aġuu
tatavs aġniaġai</w>
tatavs auti
tatam aan
tas amma</w>
tamaun n
tamatkun atun</w>
tamatku ałhaaq</w>
tamatki ġḷutiŋ</w>
tam aani
taluqsr au
taluqsr alli
tallimakipi aġuut
tallimakipi amik</w>
tallima ni</w>
taiḷ ḷusi</w>
taiḷ iqi
tairau ruaq</w>
tainnatchi t</w>
tai maŋŋaqaŋa</w>
taggisiq aqtuamun</w>
taapku alu</w>
taalu t
taa q
taa nniñ</w>
taa lu</w>
ta iḷḷutiŋ</w>
t q
t pagu</w>
t kai</w>
t aŋa</w>
t atiq
t at</w>
t ali
suŋauraammaġi ksuanik</w>
suŋaaqtu atun</w>
suŋa ġnagich</w>
suġautch iqirim</w>
suġautch iqiri</w>
suġau ttai
suġalliq pi
suur aqtuami</w>
suu gikput</w>
supayaa mun</w>
sull atu
sullatu aġu
sullatuaġu miḷu</w>
suliqutigiŋa iġñi
suliqutigiŋa iqsi
suliqutigiŋa ig
suksraunġiqsau ruq</w>
suksraunġiqsau niaqtuq</w>
suksr aaqtau
suksr aaq
suk łuŋa</w>
sug lutiŋ</w>
sug luta</w>
sug lusi</w>
sug aluni</w>
suaŋŋatiq paq
suaŋŋatiq aġluni</w>
suaŋŋati ni</w>
suaŋŋa tigi
suaŋŋa siġ
suaŋasiḷ aaġ
suaŋa ruamik</w>
suaŋa iḷi
suaŋa itchuat</w>
sua mma
su r
su niglu</w>
su n
su ka
st ar
star d-
siḷi asii</w>
siḷ aa
siġḷiġn aqtigi
siġḷiġ ni
siġ a</w>
siññaktu kun</w>
siññ aqługu</w>
siñi ġutaa</w>
siñ iqsr
siñ i</w>
siñ aani
sivuuġagi vlugich</w>
sivuuġ a
sivuqq avsiññi</w>
sivunniuġuti ŋiñik</w>
sivunniuġu taanik</w>
sivunniq sauŋaruq</w>
sivunni uŋa
sivuniġi giga</w>
sivuniq aġni
sivuniq aqtut</w>
sivuniq aqtilaaŋanik</w>
sivuniq aqpa</w>
sivulliġ miñ</w>
sivulli u
sivsaa mi</w>
sivisu tilaaŋatun</w>
siv uvsiññi</w>
siut aiqł̣ugu</w>
sitquq łutiŋ</w>
siqu m
siq un
siq sau
siq iñiq
siqiñiq tun</w>
simm ausiq
silaa miñik</w>
siiġñaġi ksuanik</w>
si ġi
si suli</w>
si pkaqtau
si payaa
si ma
si av
sh u
sh ish
se ma
sema n
savaŋa ruam</w>
savauti lugu</w>
savauti lluat
savaurri ruaq</w>
savaktu ni</w>
savaaġi r
savaagu ŋarut</w>
savaagu ŋakpata</w>
savaagu ŋaitchuq</w>
savaa ŋigun</w>
savaa ġiksu
savaa miñik</w>
savaa mik</w>
sav aŋaruaq</w>
sav autigi
sav aitchuani</w>
sav aglu
saniġ aanun</w>
salli uniat
salapqi ġñi
salapqi ġman</w>
sal lu
saglutigi nni
sag luq
saap tautigi
saag aqłuni</w>
saa ġniaqtuq</w>
saa vi
saa llusi</w>
s- tun</w>
s aŋagaat</w>
s aqu
s aqt
s ap
s ama
s am
ruksrau ŋitchusi</w>
ruksrau ŋitchuq</w>
ruksrau rut</w>
ruksrau nivḷugich</w>
rua miglu</w>
rua gutilaa
ru siḷu</w>
ru guk</w>
rriq aqtuq</w>
rri utivlugu</w>
rraqsi ŋagaa</w>
rr ah-
ri ŋisa</w>
ri m
rau vluni</w>
r v
r aŋi</w>
r aŋa</w>
r aġni
qłu niḷu</w>
quyyavigi vlugu</w>
quyyavigi lugu</w>
quyyatigi vlugu</w>
quy an
quviatch akti
quviasu piaġataŋarut</w>
quviasu ktuŋa</w>
quviasaaġusi at</w>
quti nik</w>
ququul aŋaruq</w>
ququaŋa gaasi</w>
ququ aŋagaa</w>
ququ aqługu</w>
quppi ġ
qun mun</w>
qulliqaġvi ich</w>
qulli siŋ</w>
quliaqtuaġuti tquvlugich</w>
quliaqtuaġ itquvlugu</w>
quliaqtu aŋaruq</w>
quliaqtu aŋa</w>
quliaqtu aġu
qul aŋ
qul aurrusiq
qu iññ
quiññ aks
qtu atun</w>
qsau niaqtuq</w>
qqaaq ługich</w>
qiḷaŋ mik</w>
qiḷaŋ mi
qiḷ aglu</w>
qiññuaqtu ġitchi</w>
qiññaq aŋaruq</w>
qiñu irrutiq
qiñu irruti
qiñu irru
qiñu iqł̣uni</w>
qiñu iqł̣u
qiñiyun aqu
qiñiqtuuraa ŋaruq</w>
qiñiqtu ur
qiñiqtu iññ
qiñiq ti
qiñ il
qivi aŋaruq</w>
qitunġ aniḷu</w>
qitiqqaqp alliġman</w>
qiti qłi
qisiqsiuti tun</w>
qisiqsi utit</w>
qirr atigi
qinnal iŋaruq</w>
qinnal iq
qimialu ŋnun</w>
qimak tau
qiksigi vlugu</w>
qiksigi lugu</w>
qiksi ksrauti
qikiqt am</w>
qik kis
qi p
qi iqsru
qi ani
qaġ viŋmun</w>
qaġ alu
qaunagi tquvlugich</w>
qaun mik</w>
qaummati t</w>
qaumm aġmun</w>
qaumm aġ
qaukłi ġi
qaukłi annik</w>
qatiqtu amik</w>
qat ti
qat aŋaruq</w>
qapiŋaisaaq ługich</w>
qanuġ lusi</w>
qanusiḷim aa
qanuqpisi iḷḷi
qani tkalu
qallugaur amniñ</w>
qakugu kpan</w>
qaiḷ utin</w>
qaitqu ŋagaa</w>
qai ŋaruat</w>
qai mmata</w>
qai mman</w>
qai kamiŋ</w>
qaaŋiġ man</w>
qaałhiñ akun</w>
qa si
qa iḷḷi
q ługu</w>
q tiŋ
q sigik</w>
q pich</w>
q itq
q avi
q aki
puvialuŋ aanik</w>
puggu miñik</w>
pkaġ aaŋa</w>
pkai ruaq</w>
pk aġlusi</w>
pk aġi
pk al
piḷḷuat auti
piḷḷ asi
piḷḷ aruq</w>
piḷuuti ŋi</w>
piḷuuti tin</w>
piḷuuti ni</w>
piḷuuti m</w>
piḷuut aiḷḷusi</w>
piḷuut aiġ
piḷuut aiññi
piḷuut aitchuq</w>
piḷuut aitchuaq</w>
piḷuusiqiri niglu</w>
piḷuusiqirau ruaq</w>
piḷuusiqi ugaa
piḷuun miŋniñ</w>
piḷuun miñ</w>
piḷuktu amiñ</w>
piḷuksipk aqpasi</w>
piḷuksi siq
piḷi uŋ</w>
piḷ aitchuŋa</w>
piŋasunu g
piŋasu anni</w>
piŋa iġ
piŋaiġ ḷusi</w>
piġ ġ
piññ aġn
piññ ak
piñi aġiga</w>
piñi aqtuŋa</w>
piñ iḷugu</w>
piyu mi
piviuttaġi łhaa
piviuttaġi sigik</w>
piviuttaġi raksraġi
piviuttaġi lugu</w>
piviuttaqsr isiatun</w>
piviutt aġ
piviksr akun</w>
pivi si</w>
pitqur aŋiññik</w>
pitqur aptiŋni</w>
pitqur am</w>
pitqiksiġau tairru
pisuutigi kpagu</w>
pisuqtilaa vsisun</w>
pisuk ługich</w>
pisu kługu</w>
pisu ksi
pisu kami</w>
pisu aqłuni</w>
pisru ktu
pisi vlusi</w>
pisi laa
pisaasuġmi aġuti
piraksriuti ŋi</w>
piraksri utaagun</w>
piraksri usiaq
piraksri u
piraksr aġi
pir aŋi</w>
piqasiuti ŋagai</w>
piq utigiŋa
piq tuq
piq ataullasiv
piq aqtinniaġaasi</w>
pillu gniaġasugalugu</w>
pikuktu ruaq</w>
piksraqtaa ni</w>
piksr aŋaruq</w>
piiḷaaġi niaġiŋma</w>
piiġñi aqtuk</w>
piiġ ḷugu</w>
piitchu iññiqsrapi
piitchuiññiqsrapi aq</w>
piigu i
pigru ġ
pigi ŋis
pigi ññ
pigi kkaŋa</w>
pigi ipiaġat
piani kpan</w>
pi ŋagai</w>
pi ġu
pi ut</w>
pi sa</w>
pi pkaġni
pi mmatun</w>
pi mmata</w>
pi mman</w>
pi k</w>
pi aŋagaat</w>
pi aġitchi</w>
pi aġikput</w>
pi aġi
pi aqpatin</w>
paŋmapak -unnii</w>
paŋ i</w>
paġlati kaa
paġlatikaa ŋannik</w>
paġlag aatin</w>
paġl ak
payaa ŋich</w>
payaa ŋi</w>
payaa niñ</w>
patchisi ksr
pasi ñi
pasi ri
pasi raksrau
paqin ŋagaak</w>
paq itchi
paq aqtugut</w>
paptaiqsau tquvlugich</w>
palauvaksraġuġni aqtuanik</w>
palauvaksraġi ksuat</w>
pai ł̣ł̣uŋa</w>
pa tit
pa tigut</w>
p tik</w>
p tiguk</w>
p tauġ
p at
p aliurr
on- miḷu</w>
on e
on -tun</w>
o li
nutaaġ uqtau
nunami ḷu</w>
nunaaqqiñ i</w>
nunaaqqi ŋisa</w>
nunaaqqi ur
nunaaqqi sigun</w>
nun am
nniaġ itka</w>
nni r
nni glu</w>
nna gug
niŋin ŋagaat</w>
niġġi viŋñun</w>
niġu mi</w>
niġrułłu ŋmun</w>
niġruti tun</w>
niġiuktu gut</w>
niġi ñ</w>
niġi vḷutiŋ</w>
niġi su
niġi qatiq
niġ miñik</w>
niġ mikkun</w>
niġ migun</w>
niġ matigut</w>
niġ iñ
niġ aat</w>
niviŋ ŋa
niviaqsi amun</w>
niv vi
niqsu q.</w>
niqsr aq</w>
niqinaqi mmata</w>
niqinaq usi
niqi gi
nipt aqpan</w>
nipatu tilaamisun</w>
nip aiġ
nimiġi atun</w>
nimiġi at</w>
nik tauq</w>
niaŋit kivsiŋa</w>
niaġni vḷuta</w>
niaġaa tik</w>
niaġ niq
niaquġ unmik</w>
niaqtilaa ptiŋnik</w>
ni ḷusi</w>
ni ḷuni</w>
ni ŋi
ni ŋaruq</w>
ni mmaa
ni ittuat</w>
ni aŋitchut</w>
ni aqtuaq</w>
ni aqtilaaŋanik</w>
ni aqpa</w>
naŋ niġu
naŋ ittu
naŋ ili
naġġuk sru
nayu ġ
nayu mma
nav ich</w>
nautchirri iruaq</w>
nautchiaqaġ viŋmi</w>
nautchi rr
nauri aqaġvi
naur ivḷuni</w>
nau tki
natualuu ŋiñmiuq</w>
nat atqu
nap tauq</w>
nanġ auti
nanġ aqługulu</w>
nanġ ai
nan ġaqtauli</w>
nan ni
nalupqinaiġñi aġaa</w>
nalunautchi vḷutiŋ</w>
nalunautch iḷutiŋ</w>
nalunai qsau
nalun aqtuakun</w>
nalu ruur
nalu ruq</w>
nalu ruat</w>
nalu niḷuŋa</w>
nalu giga</w>
nalu gaat</w>
nalliummatiŋ itchu
nalli ataunnii</w>
nalauti ttuq</w>
nalaunŋaru anun</w>
nalaunŋa tilaaŋanik</w>
nalaunŋa ruanik</w>
nalau łługu</w>
nalau ttu
nal uvlugu</w>
nal liqsi
nal i
nal aurr
nakuuru aliqini
naitchu anik</w>
nagliktuutiqpaŋ migun</w>
nagliktu utinik</w>
nagliksr atchaŋaruq</w>
nagliksaaġ viŋ
nagliksaaġ utigi
nagliksaaġ un</w>
nagliksaaqtuksrau nivḷugu</w>
nagliksaaqti nŋa
naglikkutiqpaq aġli</w>
nagli ksrau
naalaġni ruat</w>
naal agi
na siq
na rv
na gik</w>
n ŋagaasi</w>
n ġi
n ġ
n uttagayuich</w>
n ma
n aġumiñ
n aqtuamik</w>
munaqsr iq
mun .</w>
muk kumiñ
mu un
mu stard-
mo rrah-
mmi uġlu</w>
mmi gaasi</w>
mmi gaa
mmaa n</w>
mma tuttauq</w>
mma tullu</w>
miḷ uqtu
miñ iḷḷu</w>
miñ iḷu</w>
miu llu</w>
miqłiqtu ŋisun</w>
miqłiqtu ŋich</w>
miqłiqsi galuaġnani</w>
mile- lu
mile-lu uġuti
mikiruur akkalu
miki niqsr
miittu amiñ</w>
mi vḷuni</w>
mi vḷugu</w>
mi vḷu
mi tqu
mi sualuk</w>
mi r
mi k.</w>
mi k
mi inŋa
me d
med ath
maŋ uk
mattu muŋa</w>
maqu tchi
maqu tau
maq atigi
manisal agnik</w>
maniqaġ viŋmun</w>
malġu ŋnun</w>
malġu uŋarut</w>
malġu at</w>
malu si</w>
mali ŋŋa</w>
mali ŋagaak</w>
mal ig
makpiġaa ŋiñi</w>
makit avluni</w>
maki n
maaq si
maa nna</w>
maa gaqsi
ma ruq</w>
ma kku
m lu</w>
m ele
m aqłuk
m aqłu
m aqpi
m aasii</w>
lu tillu</w>
lu tik</w>
llu ŋa</w>
llatu vaił̣aktuaq</w>
llaa t</w>
lla siḷ
ll avsi</w>
ll aniq
ll ai
ll agu
ll agaa</w>
ll ag
liuti gaat</w>
li sigik</w>
li maa
l iñ
l avut</w>
l avsi</w>
l aitchut</w>
l ai
kuvr aq</w>
ku ug
ku pku</w>
ktu si</w>
ktu am</w>
ksu n</w>
ksu amik</w>
ksrauti mnun</w>
ksrau rugut</w>
ksrau nivḷugich</w>
ksr aŋannun</w>
ksr aġnik</w>
ksr aptiŋnik</w>
ksr amiñik</w>
ksr ait
kpi ñ
kpa gitchi</w>
kp ullu</w>
kkutiq aġitchi</w>
kka tiŋ</w>
kka miñik</w>
kk uvsiuŋ</w>
kk uvsi</w>
kk uvich</w>
kk uk
kk iññi
kk aŋiñun</w>
kk aŋisa</w>
kk aŋagun</w>
kk avut</w>
kk avsiññun</w>
kk aqtiŋ</w>
kiŋuvaan naq
kiŋuv ġu
kiŋunġu ruaq</w>
kiŋuniġi ich</w>
kiŋun ġuvluni</w>
kivr isi
kivgau ruksrauruq</w>
kivg atka</w>
kivg aq
kivg anun</w>
kivg amun</w>
kiutilaa ŋa</w>
kiu ŋaitkaa</w>
kiu ŋagiga</w>
kisi rru
kisi misualuk</w>
kipiġniuġuti tiŋ</w>
kipiġniuġuti nun</w>
kipiġni uġu
kipi sałhiñaaġ
kipi rau
killuqsr au
killuku aŋa
killu kun</w>
kiliktu unmik</w>
kiliktu un</w>
kikiaktuurrau ŋaruaq</w>
ki siññ
ki iññ
ki aqsru
kaŋiqsiñ aqtuakun</w>
kaŋiqsipk aŋa
kaŋiqsi ḷḷ
kaŋiqsi s
kaŋiqsi pkaġni
kaŋ iġallu
kavvi ġiksu
kavanau ruam</w>
kavan amun</w>
katitchi rinik</w>
kati llugich</w>
kasi mani
kami ḷu</w>
kami sigut</w>
kamasuut ai
kamasaaġ utigi
kamanałhaaqtu anik</w>
kamanaun miñun</w>
kamanaqtu ali
kamanaitchu allu</w>
kaman aġ
kamaksriñi at
kamaksri ŋitchuat</w>
kamaksri ŋitchuaq</w>
kamagi tuiññ
kamagi tquvlugich</w>
kamagi niḷugich</w>
kama tch
kalimñ anik</w>
kali ksr
kakaksi ġvigi
kaa liŋaruq</w>
ka yu
ka suġ
k ł̣ugu</w>
k tigi
k ta</w>
k atchi
k anuġ
iḷḷa ruq</w>
iḷḷ uni</w>
iḷḷ iñiaġai</w>
iḷḷ atu
iḷuvvi viŋmu
iḷuvvi uġ
iḷuviq ługu</w>
iḷuptiŋ niittuaq</w>
iḷu ta</w>
iḷiñi aqtuk</w>
iḷitchuġipk aŋagaa</w>
iḷitchuġipk ai
iḷitchuġi s
iḷitchuġi mmaġiksi
iḷitchuġi kamirruŋ</w>
iḷitchuq qutau
iḷitchitqur aġi
iḷisimanaqsi ḷugu</w>
iḷisimanaqsi saġlugu</w>
iḷisima ŋagai</w>
iḷisima ruat</w>
iḷisima ruaq</w>
iḷisima pkaġni
iḷisima niaqtusi</w>
iḷisima gikput</w>
iḷisima gaa</w>
iḷisi mmaġi
iḷisi malugu</w>
iḷisaurruti tka</w>
iḷisaurru n
iḷisaurri ŋaruq</w>
iḷisaurri ruat</w>
iḷisaurri ruaq</w>
iḷisaurri ich</w>
iḷisaur rau
iḷis aqsri
iḷi uq
iḷi masu
iḷaŋ iḷḷu</w>
iḷauraali u
iḷaur aa
iḷak ut</w>
iḷagi ŋagaat</w>
iḷ un
iḷ iḷusi</w>
iḷ iqsu
iḷ iq
iḷ aŋanik</w>
iḷ aŋa</w>
iḷ av
iḷ ammi
iḷ aitchuatun</w>
iḷ a
iŋi ul
iłuiḷḷiuġutiq paŋnik</w>
iłuiḷḷi uq
iġñi iŋ</w>
iġñ asi</w>
iġallu ŋmi</w>
iġ mata</w>
iññ iq
iññ ayaqtuq</w>
iñuŋ niglu</w>
iñuŋ iññun</w>
iñuŋ isun</w>
iñuuŋŋa pta</w>
iñuutchi mik</w>
iñuusiġ itqu
iñuuniqtu tilaamisun</w>
iñuuniaġniġ mik</w>
iñuuni aqtuagu
iñuun aqtuaq</w>
iñuu mmatun</w>
iñuu llatuvaił̣aktuaq</w>
iñuu ll
iñuu galu
iñusal aiḷḷu</w>
iñuksraqtaa ġi
iñuksraqtaa ni</w>
iñukpalli ŋaruq</w>
iñuk tauq</w>
iñuk itchuat</w>
iñugiaktu t</w>
iñugiaktigi ruanik</w>
iñugiagniqsr at</w>
iñugi aŋarut</w>
iñuggutiq aqtuq</w>
iñugguti nnagug
iñu uvluta</w>
iñu tka</w>
iñu payauraq</w>
iñu llaa
iñu kł
iñu kun</w>
iñu kkuk
iñi vḷugu</w>
iñi aqtu
iñ av
iñav iq
iviġauma kkusiaq
iviġagni aqługu</w>
ivi ch</w>
iv aġi
ittu tin</w>
ittu ksrau
ittu aġlu</w>
ittu akun</w>
itqu ŋił̣ł̣ugu</w>
itqaumayumiñaiġ ḷugu</w>
itqanaiy aġi
itqan aiñ
itku miuŋ</w>
itkalu aqpata</w>
itk u</w>
itilaa mnik</w>
itchu ġlu</w>
itchaksr at</w>
itch iḷi</w>
itch aqtu
itch aiḷi
it h
isumattu taagun</w>
isumaq aqtut</w>
isumalitqi g
isumaaġ utigi
isuma miŋni</w>
isuma kkusi
isuma gi
isivġiġ viŋmun</w>
isivġiqsi m</w>
isiq pan</w>
isi ŋna
isi ŋ</w>
isi ġman</w>
isaġuli ŋniñ</w>
isaġuli ŋnik</w>
isaġuli ŋni</w>
isaġu ll
isaa ŋaruq</w>
is ru
is aiññ
is aaġuti
is aaqługich</w>
irrusi atun</w>
irru siñi
ir vigi
ir iqtu
iqł̣u gik</w>
iqsri uti
iqsitch apiaġataŋarut</w>
iqsi ḷu</w>
iqsi ḷi
iq uvlugu</w>
ipiġaqtu usiaq
ipi ktuamik</w>
inu aŋaitchu
inu aŋa
iniq paŋanun</w>
inill ag
ini ni</w>
ini miŋniñ</w>
in ŋaruŋa</w>
in miñiñ</w>
in miut</w>
in aŋ
in aanun</w>
in .</w>
imnaiḷ iqirit</w>
imnaiḷ iqiri</w>
imnaiḷ iqiri
imnaiyaa tun</w>
imnaiyaa q</w>
imiġ alu
imi qtuaq</w>
imi q</w>
im maġi
im aġi
iluqaiññ ullu</w>
ilu aqsi
iliv sisun</w>
ilitqutch ich</w>
ilitqusi ġa</w>
ilaisi tu
ilaa llu</w>
il lugich</w>
il aiñ
il ais
iksi t
ikipk autau
iki rau
ikayuq tiksr
ikayuq taiḷiqi
ikayu ŋagaa</w>
ikayu ġni
ikayu ġ
ikayu gaksraġi
ika miŋ</w>
ik ł̣utiŋ</w>
ik aaq
ik aamik</w>
igḷu ata</w>
igniġuuqpati ttu
igniġuuq patit
igluqpi ruamik</w>
igluq piñi
igluq paŋanun</w>
iglu t</w>
iglu ni</w>
iglu miñi</w>
iglu miñ</w>
iglu miñ
iglaull aġmiŋ</w>
iglau ŋarut</w>
iglau yaa
iglau qati
ig niqsu
ib eri
i ŋarusi</w>
i ä
i rraqsiŋarut</w>
i mu
i llu</w>
i lli</w>
i kkalu
i kk
i iqtu
h one
gñ un</w>
guv siŋa</w>
guu ruq</w>
gu ruŋa</w>
gu mŋa</w>
gu asii</w>
grap es</w>
god-iliqi ruagu
god-i ŋŋu
god- taiḷ
gikp uk</w>
gikk avut</w>
gikk aqsi</w>
gi ḷ
gi ŋma</w>
galu aġivsi</w>
galu aqtilluŋa</w>
g ḷugu</w>
g uvluni</w>
eth seman
es- tullu</w>
er b
en -mik</w>
e- mik</w>
e s-mun</w>
d is
d d
ch ?</w>
ch -gum</w>
b o
aŋŋ is
aŋuy aŋ
aŋuy agniaqtut</w>
aŋuti nun</w>
aŋu sallu
aŋm aġmagu</w>
aŋitki ksi</w>
aŋitchu atun</w>
aŋit pa</w>
aŋi ŋaruq</w>
aŋi tigi
aŋi k</w>
aŋarraur amiñ</w>
aŋalati nŋa
aŋalat taġi
aŋalan ŋagaaŋa</w>
aŋal atiq
aŋaiġ ḷusi</w>
aŋaiyyuviŋ miñ</w>
aŋaiyyuuġ lusi</w>
aŋaiyyuliqsiqpaŋ niñ</w>
aŋaiyyuliqiru aŋi</w>
aŋaiyyuliqi niġmi</w>
aŋaiyyuli aqavsi</w>
aŋaiyyu uqłutiŋ</w>
aŋaiyyu ruat</w>
aŋaiyy uk
aŋaitchu t</w>
aŋa kta</w>
aŋa itpisi</w>
aŋa itkalu
aŋa gik</w>
aŋa giga</w>
aŋ iḷ
aŋ iñiaqtuq</w>
ałhiñ au
ałhiñ aaġu
ałhaaġ niaqtuq</w>
aġvi ksrautimnun</w>
aġumiñaqsi ḷugu</w>
aġumiñ aqtuq</w>
aġumaa gaqsi
aġuk ługich</w>
aġu ugaich</w>
aġu taat</w>
aġu maut</w>
aġu maugut</w>
aġu gn
aġniġmi kkun</w>
aġniġ a</w>
aġniaġ miusi</w>
aġni ḷugu</w>
aġni vḷuŋa</w>
aġni vḷuta</w>
aġna miñ</w>
aġn aŋa</w>
aġn aġi
aġn akun</w>
aġlu tik</w>
aġlu tiglu</w>
aġlu niḷu</w>
aġi ni
aġalu aġivsi</w>
aġ uvsiuŋ</w>
aġ uvsigik</w>
aġ ruur
aġ ni</w>
aġ itqu
aġ ay
aà in.</w>
ayu ġ
ayau ŋavluni</w>
avv aġmik</w>
avsi sun</w>
avs aaqtu
avilait qatigi
aviksi llugu</w>
avat aanun</w>
av siḷu</w>
av saaq
av ru
av inŋa
av gu
av ataani</w>
auv lu</w>
auti qaġ
auti laaŋanik</w>
auti kun</w>
autaa qługich</w>
aut r
aun niu
aullaqti nŋagaich</w>
aull aġviksr
aull aġman</w>
aull arr
aull ar
aull aqtuq</w>
aull algiññ
aul ataġi
aul aqp
au ŋanik</w>
au ttutigut</w>
au ga</w>
atu ŋarut</w>
atu ġuk
atu ġni
atu ġ
atu g
atq aqtuamik</w>
atisi pkaiñi
ati vlutiŋ</w>
ati vlugich</w>
ati siqatigi
ati rut</w>
ati ruaq</w>
ati ruamik</w>
ati lik</w>
atchi ŋagaat</w>
atch aŋarut</w>
atautchi muk
atautchi m
atausiŋŋuqatauŋa ruasii</w>
atausiŋŋuqatau ŋaruanun</w>
atausiur amikunnii</w>
atausiullaa vlusi</w>
atausiullaa lusi</w>
atausiu ruam</w>
atausi ŋŋ
atausi uruq</w>
atausi aqłuni</w>
atau ŋa
atanġ itchu
atanniqsimmati ni</w>
atanniqsimma taagun</w>
atanniqsima gai</w>
ataniġnaqusir aqtuat</w>
ataniġnaq utaa</w>
ataniġnaq un</w>
atanaurau mman</w>
atanaur aŋiḷḷu</w>
atanaur aq</w>
atan ġa</w>
at aniq
asiv aqtaaġ
asi ñi
arraqsi ŋaruq</w>
arraqsi ŋagaat</w>
arr aqsivḷuni</w>
argu ġi
argu aŋŋa
argak tin</w>
arg aŋni</w>
arg aŋigun</w>
ar vich</w>
ar aġ
aqłu ŋalu</w>
aquvlu ŋa</w>
aquv isigut</w>
aquppiut aqpaŋ
aqulli q</w>
aqtuqtu anun</w>
aqtu tilaa
aqtu t
aqtu aŋaa</w>
aqtu aniglu</w>
aqtu amiñ</w>
aqtu amiglu</w>
aqti łługu</w>
aqti tchumiñ
aqti q
aqsi ḷugu</w>
aqsi ḷu</w>
aqsi ŋaruq</w>
aqsi ruq</w>
aqsi kpan</w>
aqs aiḷi
aqpi sik</w>
aqpi atchi
aqpa rruŋ</w>
aqp aił̣ł̣uni</w>
aqh uni.</w>
aqami gich</w>
aqa pku</w>
aq ta
aq aġitchi</w>
apquti tigun</w>
apiġipi aŋagaat</w>
apiġi piaġat
apiqsr ivḷutiŋ</w>
ap tun</w>
ap tigu</w>
anuġ aiŋaruq</w>
anuq ł
anu ġi
anu lli</w>
annuġaaq aqłutiŋ</w>
annuġaa ŋan</w>
anniqsuutau ŋitchuanik</w>
anniqsu utigi
anniqsu usiaksr
annautiyaqtuq ługich</w>
annauti ŋagaatigut</w>
annauti sukługich</w>
annaurrau yumiñ
annaurrau tquvlusi</w>
annaurrau tquvlugich</w>
annaur ris
ann aunmik</w>
ann ag
anittai ruq</w>
anitqi ksi
aniqatii nun</w>
aniqati si</w>
aniqat aanun</w>
ani ŋaruŋa</w>
ani ŋaruat</w>
ani ŋaiñŋa
anaya saaġniaqtuq</w>
anaumi ŋagaat</w>
an ŋa</w>
an aull
an -mi</w>
an -gum</w>
amu ŋagaa</w>
amik suli</w>
ami t
am maġiksaa
alġaqsruutigi kkaġa</w>
alġaqsrui ruq</w>
alġaqsru iñiq</w>
alġaqsru itquvlugu</w>
alġaqsru itquvlugich</w>
allaa ni
alla tuqtu
all avsi</w>
all aptauq</w>
all an
all alli</w>
all ali</w>
aliuġn aqtuatigun</w>
aliq suuti
ali ŋarut</w>
ali vḷugu</w>
ali vḷugich</w>
ali k</w>
alaitchu amun</w>
al y
al iñ
al avlutiŋ</w>
akut aq</w>
akuqtuġ naqsi
akuqtu ġumiñ
akuqtu ġni
akunnav siññiñ</w>
aktu ksrau
akti gun</w>
aksr at</w>
aksr aq</w>
aksr ali
aksr akti
aksi ukługu</w>
aksau taitchuamik</w>
akku siaq
akku ma
akki ga</w>
akkalu aq</w>
akk aŋat</w>
akk aŋa
akiḷḷiḷ iġñi
akiḷḷi uruq</w>
akiḷi uti
akisu ruat</w>
akima s
akima ruat</w>
aki iḷaŋ
ak ta</w>
ak sru
ak siññ
ak ikaamik</w>
ak ama</w>
ak a</w>
aiḷḷ i</w>
aiḷ aqti
aiġ aat</w>
aiñ ŋa
aiñ iġ
aitk itka</w>
aitchuutigi yumiñ
aitchuutigi ni
aitchuusiaq aġniq</w>
aitchuusiaq aġniaqtusi</w>
aitchu ŋagaat</w>
aitchu utaanik</w>
aitchu unmik</w>
aitchu llu</w>
aitchu isuurusi</w>
aitchu aniñ</w>
ait quvlugich</w>
aisilaa miñik</w>
ais aŋat</w>
aiqsu q</w>
aimaaġ viq
ai silaaŋanik</w>
ai mmi
ai li
ah -mik</w>
agu rullu</w>
agu ruam</w>
agu lugu</w>
aglausima rut</w>
aglausima ruaq</w>
aglaa ġi
agl ak
ag v
ag uvlugu</w>
ag na
ag aayu
ac ch
aaġlu ŋaruq</w>
aaġ lugu</w>
aasi iñ</w>
aaqtu si</w>
aaq ta</w>
aaq siññ
aapa niḷu</w>
aapa gi
aaka miñun</w>
aaka gi
aak aŋata</w>
aak ani</w>
aa ŋarut</w>
aa tch
aa mi</w>
aa lu</w>
aa gun</w>
a- li</w>
a se
a mma
Z acch
Uvaŋa uruŋa</w>
Uqalu ŋiñik</w>
Uqalu k</w>
Uqalu ich</w>
Uqallauti tigut</w>
Uqall ausiġi
Uqall akku
Uq autiq
Umialigi vatin</w>
Umi aqpag
Ukpiġutiq aqłutiŋ</w>
Ukpi qtu
U yaġ
U pku
U igu
Tusaa yugaa
Tuq ull
Tili si
Tik iñ
Ti ŋ
Ti mi</w>
Thessalonic a-
Th yatir
Tavr aliasii</w>
Tautugi aqt
Tar shish
Tamat k
Tainna siq</w>
Tainn aasii</w>
Taimani gu</w>
Tai pku
Tai mña</w>
Tai mñ
Taamnau ruŋa</w>
Taa mani</w>
T ychi
T uy
T ukku
T imi
T iberi
Sumi payaaq</w>
Suksraunġi qsau
Su payaa
Su mmanmi</w>
Su mi</w>
Su m</w>
Sivu niq
Sivu ani</w>
Sime on</w>
Sid on-lu</w>
Sh el
Sav auti
Sav airvianni</w>
Sar dis
Sapiġñ aqtuam</w>
Saglu qi
S iḷ
S iñi
S e
S am
Quviasu giñ</w>
Quvi atch
Quliaqtu aġuti
Qiḷ aglu</w>
Qiñiq sigik</w>
Qaun akku
Qau kłi
Qapiŋa isaa
Qanuq łutiŋ</w>
Qanu ġlugu</w>
Qai ŋaruŋa</w>
Qa itqu
Q uq
Q u
Q ik
Q avsi
Q an
Put u</w>
Pu rim</w>
Priscill a-lu</w>
Piḷ uusiqi
Piŋa su
Pisi gilugu</w>
Pi igu
Pharisee- ḷḷu</w>
Pharisee- ñun</w>
Ph il
Paq in
P uttuq
Nun am</w>
No ah-m</w>
Nivi aqsi
Niqin aqi
Nineveh -m</w>
Nazareth -miñ</w>
Nalupqi nai
Nalu giga</w>
Nalli u
Nalaunŋa sipkaqtau
Nal autch
Nagliktu utiq
Nagli ksaaġ
Nagli ksaaq
Nagli gnaqtusiuvva</w>
N u
Mose s-mik</w>
Miqł iqtut
Melchizedek -tun</w>
Melchizede k</w>
Me dia-
Mattath i
Marth a-m</w>
Mak ittitchi</w>
M es
M aŋŋ
M aa
Ly dd
Kivg au
Ki u
Kaŋ iġalluŋmi</w>
Kaman aqtuaq</w>
Kama nai
K in
K avi
K api
Jude a-mun</w>
Jud ah-
Joseph -mik</w>
Joseph -lu</w>
Joppa -mi</w>
John -gu
John -
Jo shu
Jew-guŋitchu atun</w>
Jesus- tauq</w>
Jerusalem- muk
Jerusalem- miut</w>
Jericho -mun</w>
Je ss
Jacob -gum</w>
J ann
J ai
Iḷisima mmiusi</w>
Iḷisi malluat
Iḷaksian agu</w>
Iḷ aŋat</w>
Iḷ au
Iłu iḷḷi
Iłu ałhaaġayaqtuq</w>
Iłu ałhaa
Iġñiġi piaqpatin</w>
Iġñiġi gaatin</w>
Iġñiġ miñun</w>
Iġñi ŋanun</w>
Iñugi aktilaaq
Iñ uqaŋaruq</w>
Itqauma siuŋ</w>
Itqauma sigik</w>
It qau
It aly
Isumalaaġutigi siuŋ</w>
Isuma visi</w>
Israel -mi</w>
Isivġiġ viŋmi</w>
Isaġul g
Isaġu lik</w>
Isaac -gum</w>
Iq alu
Imnaiyaa vlu</w>
Iluq ani</w>
Ilitqusiġiksu aŋata</w>
Ilitqusiġiksu aŋan</w>
Ilitqusiġiksu avlu</w>
Ilitqusiġiksu amiñik</w>
Ilitqu siqł̣
Ika rr
Igḷu a</w>
I siq
I qalli
I ni
I laagu
I kka</w>
I ki
Ham medath
H o
H ath
H ar
Greek -tun</w>
Go morrah-
G ethseman
G ai
Feli x
Esther -mun</w>
Epa phr
En o
Eli mele
Egyp t</w>
E unuch
E u
E r
E l
Damascu s-
D erb
Cyrene- miu</w>
Cret e-
Corinth -mi</w>
Christ- gutilaa
Capernaum -mi</w>
Caes ar</w>
C o
C lau
Bethlehem -mun</w>
Barabb as-mik</w>
Aŋuti it</w>
Aŋaiyyuvi k
Aŋ utim</w>
Aull aġlutik</w>
Aull aġlusi</w>
Aull aġitchik</w>
Aull auti
Atausi ŋŋuq
Atanġu ruq</w>
Ataniġ a</w>
Atani ptiŋniḷḷu</w>
Atan ġiqsi
Aquil a-lu</w>
Aq paliurr
Apollo s-
Apiġi piaġikpiñ</w>
Apiq sr
Annaur ri</w>
Annaur rau
All a</w>
Ad am
Abraham -tun</w>
Abraham -miñ</w>
Aapa ptiŋniñ</w>
Aapa mnun</w>
Aap avut</w>
A ä
A v
A u
A tigi
A rriqaqtuq</w>
A ri
A kku
A itchuq
2 0</w>
2 00</w>
-mu ŋarut</w>
ḷġat aġlusi</w>
ḷ ġutau
ḷ iñ
ḷ iqi
ŋŋu ġu
ŋŋa ġmi</w>
ŋŋa miñ</w>
ŋŋa isa</w>
ŋŋ is
ŋni ḷḷu</w>
ŋn at</w>
ŋiḷ ḷugiḷḷu</w>
ŋiḷ git
ŋiḷgit pan</w>
ŋił̣ł̣u ta</w>
ŋił̣ł̣ utin</w>
ŋiññiġ aat</w>
ŋiññi vḷugich</w>
ŋiññ ullu</w>
ŋiññ iḷugich</w>
ŋiññ iḷu</w>
ŋiññ iqsr
ŋiññ avsigik</w>
ŋiññ ami</w>
ŋiñ iglu</w>
ŋitpi uŋ</w>
ŋitku pku</w>
ŋitku miuŋ</w>
ŋitku mi</w>
ŋitkalu akkaġa</w>
ŋitk uvsi</w>
ŋitk uvich</w>
ŋitk aanŋa</w>
ŋitchuma gaasi</w>
ŋitchu mausi</w>
ŋitchu mauq</w>
ŋitchu k</w>
ŋitchu amun</w>
ŋitchu am</w>
ŋitchu allu</w>
ŋit patin</w>
ŋit pat</w>
ŋisu aġumi</w>
ŋisu aqpani</w>
ŋisi ññ
ŋisi gullu</w>
ŋisi gi
ŋis aŋat</w>
ŋis aŋannik</w>
ŋipi aqtugut</w>
ŋi rrutau
ŋi rru
ŋi piaġat
ŋav at</w>
ŋatilaa ŋa</w>
ŋatilaa ptiŋnik</w>
ŋasu gaa
ŋar aŋi</w>
ŋaniġ aat</w>
ŋamma ŋa</w>
ŋakk avsiññiñ</w>
ŋakk ani</w>
ŋaiḷḷ isin</w>
ŋaiñŋa vsi</w>
ŋaiñŋa isa</w>
ŋaiñ ñi
ŋaitku mi</w>
ŋaitki ga</w>
ŋaitk aaŋa</w>
ŋaitk aanŋa</w>
ŋaiq ł̣utiŋ</w>
ŋaiq ł̣uni</w>
ŋaiq ł̣ugich</w>
ŋai ł̣ł̣uni</w>
ŋagalu aġaa</w>
ŋagalu aqtuaq</w>
ŋag uvsi</w>
ŋa vluta</w>
ŋa visiuŋ</w>
ŋa unnagu</w>
ŋa titun</w>
ŋa tigun</w>
ŋa ruasii</w>
ŋa ruaguut</w>
ŋa niqsi</w>
ŋa ni
ŋa nay
ŋa mmatun</w>
ŋa lusi</w>
ŋa lgi
ŋa iññ
ŋ nu
ŋ niglu</w>
ŋ miñik</w>
ŋ miñ</w>
ł̣ł̣u si</w>
ł̣u gulu</w>
ł̣haaġ niaqtuq</w>
ł̣h aaġni
ł̣h aaq
łłu ŋa</w>
łłu si</w>
łłu gulu</w>
łhiñ at</w>
łhaaġ niaqtuq</w>
łhaaqtu si</w>
łhaa ŋitchuq</w>
łhaa sugru
łh aaġi
łaaq palliġman</w>
ġñi aġiga</w>
ġvi annik</w>
ġuti laaŋanik</w>
ġuti kun</w>
ġusi aq
ġumiñaqsi ḷugich</w>
ġumiñaitk aatigut</w>
ġumiñ aŋagalu
ġumiñ aġlugik</w>
ġumiñ aitkaat</w>
ġuma giksi</w>
ġuma gai</w>
ġuk łusi</w>
ġu urrau
ġu tch
ġu taanik</w>
ġu maut</w>
ġu maaġ
ġu maaqtu
ġni q</w>
ġni glu</w>
ġna nik</w>
ġn aġumiñ
ġmiu m</w>
ġli uŋ</w>
ġiyumiñ aitkai</w>
ġisimaaġ viŋmi</w>
ġisi unnii</w>
ġi uġ
ġiuġ luni</w>
ġi tin</w>
ġi niaġaat</w>
ġi itchuat</w>
ġi aqługu</w>
ġalu aġupta</w>
ġalu aġnagu</w>
ġ ḷusi</w>
ġ ḷugulu</w>
ġ ñik</w>
ġ viḷi
ġviḷi uti
ġviḷiuti ŋagiksi</w>
ġ uvsiuŋ</w>
ġ niñ</w>
ġ ni</w>
ġ miŋni</w>
ġ miñ</w>
ġ miuq</w>
ġ itqu
ġ ai</w>
ñiksr aŋagun</w>
ä auti
â u
â ià
â h
ài aà
à isi
yumiñaqsi ḷuta</w>
yumiñaiñ miusi</w>
yumiñaitk aaŋa</w>
yumiñaitchu ŋa</w>
yumiñaitchu gut</w>
yumiñaitchu amik</w>
yumiñaipi aġaa</w>
yumiñaipi aqtuq</w>
yumiñ aqtuŋa</w>
yumiñ aqtusi</w>
yumiñ aqtugut</w>
yumiñ aqtuat</w>
yumiñ aqtilaaŋanik</w>
yumiñ aiḷḷ
yumiñ aiññ
yumiñ aisilaamiñik</w>
yumau q</w>
yumaaqtu atun</w>
yumaaqtu aq</w>
yuma giga</w>
yum auti
yumauti n</w>
yum aaqługu</w>
yug uvsi</w>
yu mmi
yasi ur
y gi
y ch
y aqhii</w>
y aaġ
wine- tuq
wine- lu</w>
vsiññ ullu</w>
vsi gullu</w>
vsaa ŋagaa</w>
vr ig
vlu ŋalu</w>
vlu gi</w>
vlu aqtu
viŋ miñi</w>
viksrau taat</w>
vigi ŋais
vigi ŋagaat</w>
vi ä
vi siŋa</w>
vi iḷḷu</w>
vi gru
vi aqtuq</w>
vi anun</w>
v ḷutik</w>
v ḷuti
v ullu</w>
v anu
v alliġman</w>
v aił̣ł̣uni</w>
uŋiarrisi t</w>
uŋiarr isiq
uŋasiksu amiñ</w>
uŋasi ur
uŋasi kkalu
uŋa l
uġni aŋ
uġniaŋ itchutin</w>
uġ lugich</w>
uyaġagru aġmik</w>
uyaġ aum</w>
uyaġ agi
uy aqq
uvsaa nik</w>
uvluġi anik</w>
uvluġi allu</w>
uvlutu aqpan</w>
uvlupaŋ mun-aglaan</w>
uvlu ŋisa</w>
uvlu mik</w>
uvlu gik</w>
uvlaa ku
uvaŋau ŋŋuaqtuat</w>
uvapti ktuttauq</w>
uvap tuttauq</w>
uvap ku
uvani ittuq</w>
uvam ni
uvamni itilaaŋanik</w>
uv s
uvs aat</w>
uv r
uv aŋŋa</w>
uumi kkuti
uuma ruaq</w>
uuktuq pi
uuktu ġni
uuktu utigi
uuktu usiq
uuktuusiq ł̣uni</w>
uu muŋaaglaan</w>
uu mmatiŋ
uu matun</w>
uu ll
utuqqau ruamiñ</w>
utuq qan
uttu iñ</w>
utku tchi
utituqtu at</w>
utiqti łługich</w>
utiq titchi
utiqtitchi vigi
utiq titau
utilaa mnik</w>
utiksr aitchuŋa</w>
utigiŋitki ñ</w>
utigiŋa r
utigi ŋma</w>
utigi tquvlugu</w>
utigi tquvlugich</w>
utigi lugich</w>
utigi kka
uti ŋagaich</w>
uti laan</w>
utau ŋaruq</w>
utau li</w>
utaqqi rut</w>
ut l
ut alu</w>
urriq avluni</w>
uraaq taanik</w>
uqu ŋił̣ł̣ugu</w>
uqtu unmik</w>
uqtu tin</w>
uqtu atun</w>
uqtu aqtugut</w>
uqtu amik</w>
uqtu agu
uqtinni aqtut</w>
uqti tch
uqti t
uqq aqługich</w>
uqq aaġ
uqaŋaiq ami</w>
uqaġuu ruat</w>
uqaġni aqtillugu</w>
uqaġlaq uti
uqaġataviksillu gik</w>
uqayu piaġat
uqavigaaġuti ksraq
uqavig aaġni
uqavaaġ utinik</w>
uqautigi vlugu</w>
uqautigi su
uqautigi kkaġa</w>
uqautigi ani
uqauti ŋagivsi</w>
uqauti ŋagaa</w>
uqauti tka</w>
uqauti tilaamiŋnik</w>
uqauti kavsi</w>
uqausi atigun</w>
uqaqti ŋiñun</w>
uqaqtau tilaaŋa</w>
uqaqtau niġmik</w>
uqaqsiġi iḷ
uqaqsiġiiḷ iñasi</w>
uqaqsitaaġ viŋñun</w>
uqaq taanik</w>
uqaq ami</w>
uqamaqłuk tau
uqamaqłu ur
uqaluŋ miñik</w>
uqalu ŋmun</w>
uqalu ŋiññiñ</w>
uqalu łhiñ
uqalu usi
uqalu um</w>
uqalu gikk
uqallaŋa nivḷugu</w>
uqallaŋa mmiut</w>
uqallaŋ nivḷugu</w>
uqallauti ŋagaik</w>
uqallauti ŋagaich</w>
uqallauti ŋagaatigut</w>
uqallauti yumagiktik</w>
uqallauti yaqtu
uqallauti lugich</w>
uqallauti lgi
uqallausiġi viuŋ</w>
uqallausiġi mmagu</w>
uqallau tau
uqallau taanik</w>
uqallau taagun</w>
uqallaksiññ aŋaruq</w>
uqallakkumiñ aqsi
uqallak ami</w>
uqallag niaqtuq</w>
uqall aurri
uqall akti
uqall agni
uqal uvsiññi</w>
uqal aitchuaq</w>
uq łu
uq qaaqłuni</w>
uq qaa
uqqaa q</w>
uq pan</w>
uq paił̣ł̣utiŋ</w>
uq aŋaiġ
uq aġu
uq autau
uq aqłutik</w>
uq aqłusi</w>
uq aqtusi</w>
uq aqtilaamnik</w>
uq alli
uq aani
uq aall
upkui ġu
upkuaqp aich</w>
upku at</w>
upiaġat aŋaruŋa</w>
upalu ŋaiy
unu k</w>
unnu aniḷu</w>
unnu am</w>
unniqsuqłiisi kun</w>
unniqsuqłiisau ŋaruamik</w>
unniqsuqłi ikamiuŋ</w>
unniqsuqłi ikami</w>
unni iḷu</w>
unn agni
uni ñ
uni uqtinniaqtut</w>
unaŋuiqsiġ viŋmun</w>
un nuksr
un ni</w>
un nagich</w>
un miñun</w>
un mikkun</w>
umma isa</w>
umiaqpaŋ mik</w>
umiaqpaur am</w>
umialli uti
umialiŋn aŋiḷḷu</w>
umialiŋ nun</w>
umialiq aqtuat</w>
umialiq aqtuanun</w>
umialikp au
umialikpau ruatiin</w>
umiali gu
umialguti ŋiññik</w>
umialguti ŋi</w>
umialg anun</w>
umial giḷḷu</w>
umi ktu
ull aŋa
ull ak
uliq amiŋ</w>
uli vrig
ul ġutau
uksr au
ukpiŋaitchu t</w>
ukpiŋaitchu atun</w>
ukpiŋaitchu aq</w>
ukpiŋaitchu anun</w>
ukpiġutiq aqti
ukpiġuti vsi</w>
ukpiġuti ki
ukpiġutai ł̣ł̣utiŋ</w>
ukpiġutai sigirusi</w>
ukpiġun miñi</w>
ukpiġu taata</w>
ukpiġu ta
ukpiġnaqtu ag
ukpiġna piaqtuq</w>
ukpiġi ŋaitpisiuŋ</w>
ukpiġi ŋaitkaich</w>
ukpiġi lugich</w>
ukpiġi liq
ukpiġ vigi
ukpiġ lutiŋ</w>
ukpiqtuaguqati si</w>
ukpiqtuagu ŋitchuat</w>
ukpiqtuagu ruanik</w>
ukpiqtuagu lluat
ukpiqti tauq
ukpiqtitauq qaaq
ukpiqsi maaqtu
ukpiqsi maa
ukpiliq avsi</w>
ukpili ġñiq
ukpi ŋitchuat</w>
ukpi ŋai
ukpi ŋa
ukpi qtau
ukpi qqaaq
ukpiqqaaq avsi</w>
ukpi ch</w>
ukki ga</w>
ukił̣h aamik</w>
uk łuŋa</w>
uk łuta</w>
uk ługi</w>
uk tun</w>
uk sri
uk siññ
uk pan</w>
uigu ruam</w>
ui miñun</w>
ugaur amik</w>
ug li
ug aqtuat</w>
ug aqtuaq</w>
ug aqsiññ
ug ai</w>
ug aat</w>
u ŋaruŋa</w>
u sivsun</w>
u se
u lig
u imi
u ci
tuŋaa niñ</w>
tuyu ġivsi</w>
tuy uqtut</w>
tuvaaqatini ktu
tuvaaqatini kkumiñ
tuvaaqati ksrauti
tuvaaqatau ruat</w>
tuvaaqasiuti tquvlugu</w>
tuvaaq atiqaqtuaq</w>
tuvaaq ataata</w>
tuvaaq an
tuunġ aq</w>
tuttuqłu gnik</w>
tuttuqpaiy aamik</w>
tuttuq pag
tutquq taġi
tutqiutiq aqtitchi
tutqik siḷutin</w>
tutqi unmik</w>
tusiattu at</w>
tusaġn atqigñi
tusaqsraġi gaat</w>
tusaaŋakk aqsi</w>
tusaayugaaġiksu amun</w>
tusaakk aŋannik</w>
tusaa ŋar
tusaa ŋakkamnik</w>
tusaa yuma
tusaa vluŋa</w>
tusaa su
tusaa pqaur
tusaa nasugalusi</w>
tusaa kkaqsi</w>
tusaa kamisigik</w>
tusaa guvsigik</w>
tus -gum</w>
tuqutau ŋarut</w>
tuqutau ruksr
tuqutau mman</w>
tuquli ruatun</w>
tuqu łługu</w>
tuqu łługich</w>
tuqu tquvlugich</w>
tuqu tqikkumiñ
tuqu taksr
tuqu ruatun</w>
tuqu niŋa</w>
tuqu niaġ
tuqu llu
tuqu galu
tuqu agun</w>
tuqquti ŋagaatigut</w>
tuqquti yumiñaġluŋaunnii</w>
tunun ni
tunmalu gi
tuniuq qai
tuniqsi mmati
tuniqsimmati ksr
tuniqsimmatiksr aqtiŋ</w>
tuni ŋagai</w>
tuni si
tuni rau
tuni kkich</w>
tuni ki
tuniki ł̣haaġniaqtuq</w>
tukkuli i
tukku ġi
tuiññ aqsigik</w>
tuavaallakti nŋagaich</w>
tuavaall aŋarut</w>
tuaksr aitchut</w>
tu taalu
tu saaq
tu s-mik</w>
tu pai
tu nŋa
tu nnii</w>
tu mma
tu mi
tumi tchi
tu aluni</w>
ttu uŋ</w>
ttu t</w>
ttu iñ</w>
tquti m</w>
tqu ŋił̣ł̣uŋa</w>
tqu ŋagai</w>
tqu lusi</w>
tki ga</w>
tk aqsi
tiŋmiaqp aich</w>
tiŋmi aġruur
tiŋmi anik</w>
tiŋil ġaqsi
tiŋ niñ</w>
tiä miur
tivraġiks aŋagai</w>
tivraġiks autinik</w>
titchumiñ aġiŋma</w>
tiriqtinniaġ aiḷḷu</w>
timiŋ ich</w>
timiq aqtut</w>
tiliñi aġiga</w>
tilisi ŋaruaq</w>
tilirau ŋaruŋa</w>
tilirau ŋaruq</w>
tilirau ruanun</w>
tili vḷuŋa</w>
tili siñi
tili sivsaa
tili giga</w>
tilaaq tiŋ</w>
tilaa ŋiññik</w>
tilaa ŋa
tilaa ni</w>
tikiḷġat aqtillugu</w>
tikiññ amik</w>
tikiñ ŋaitchuq</w>
tiki ł̣ł̣uni</w>
tik ku
tik iḷ
tik itpata</w>
tigutaaġ viŋmi
tigutaaġ viŋ
tigutaaqtau ruŋa</w>
tigutaa qti
tigu s
tigu niqł
tigu lugu</w>
tigu lugich</w>
tigluk tuqtu
tigligayuktiq pau
tigligayukti nun</w>
tigligayuk titun</w>
tiglig ai
tigi vlutiŋ</w>
tigguġlu ŋagaich</w>
tiggu ur
tig aurr
ti nŋa
ti nni
ti llugu</w>
thi o
thio pi
th o
tho lom
tholom ew-lu</w>
th a</w>
tchuu rut</w>
tchuu gaa</w>
tchu k</w>
tchiġ mun</w>
tchi uŋ</w>
tchi si</w>
tchi mi</w>
tchi aġi
tch iñiq</w>
taŋŋiutau s
taŋŋiutau ruq</w>
taŋŋ iqł̣ugich</w>
taŋ iñik</w>
taġiu miñ</w>
taġi ŋagaa</w>
taġi uġlu</w>
taġ ma</w>
tax- i
tavrani itchu
tavrani in
tav siq
tautuq uvlugu</w>
tautuktinni aġikpiñ</w>
tautukti n
tautuksiḷḷ asi
tautukku mirruŋ</w>
tautukku ma
tautukk uvsigik</w>
tautukk aa</w>
tautugu mal
tautugi aqt
tautug niaġivsiŋa</w>
tautug lugu</w>
tautu ŋarut</w>
tautu ŋaitkaa</w>
tauqsiġñi aqti
tauqsiqsuġ viŋñi</w>
tauqsi ġi
tau ŋarusi</w>
tau ruatun</w>
tatqi ġḷu</w>
tatavsaqtau niaqtut</w>
tatavsaqtau niaqtusi</w>
tatavs aġni
tatavs aġli
tatavs ai
tasu ġukługich</w>
tasi ata</w>
tammai yumiñaipiaġaa</w>
tamma igu
tamaunn aaqtuat</w>
tamau ŋanun</w>
tamatkun uŋalu</w>
tamatkun ani</w>
taluqsr aiqł̣u
talukiyaa ŋa</w>
tallima ŋat</w>
tallima tun</w>
tallima nik</w>
taliqpi ŋmi</w>
taliqpi mñi</w>
takun naa
takk u</w>
taki ruanik</w>
taiḷ ḷuŋa</w>
taiḷ ḷusiḷu</w>
taitchu at</w>
tainnatch ich</w>
tainnaiḷi mman</w>
tainnain niġman</w>
tainna tupiaġataq</w>
tainna si
tain nal
tain nai
taimñ au
taigu aŋarusi</w>
taigu ag
tai ł̣ł̣uni</w>
tai pkunuŋa</w>
tai pku
tai kkaŋa</w>
tai gaa</w>
tai g
taggisiq aġniaqtuq</w>
taaġ niqsrau
taavru matun</w>
taavru mani
taavani tchiani</w>
taaqtu aq</w>
taaqtu ami
taaqtu am</w>
taapkun atun</w>
taapku ŋniŋa</w>
taapku niŋa
taam nalu</w>
taam n
taamn aunnii</w>
taakti tuaksraitchut</w>
taaguŋa tchiġmun</w>
taa qtau
taa nnik</w>
taa niglu</w>
taa mani
taa gullu</w>
taa gani
ta siq</w>
t qiq
t piŋa</w>
t pan</w>
t o
t aŋich</w>
t aqu
t api
tapi g
tapig l
t ama
t alli
t ali</w>
t aiññi
t aitchuaq</w>
t ai</w>
suŋa iññaq</w>
suġalli ruallu</w>
suġall akkalu
suġall agni
suġali ŋiñik</w>
suġal ġich</w>
suġ uqtuunmik</w>
suu ŋar
suu ŋagalu
suu ni
suu mmiut</w>
suu gaich</w>
suu gaat</w>
surru itpata</w>
sur autilaaŋa</w>
supayaur anik</w>
supayaa niñ</w>
supayaa mi</w>
sumu payaaq</w>
suliqutigiŋaiġumiñ aqługich</w>
suliqutigiŋa iqł̣ugich</w>
suliqi tilaaŋanik</w>
suliq si
suksraunġi qł̣ugich</w>
sukp alu
sukkalu aqtugut</w>
suk łuta</w>
suk ki
suaŋŋati payaurat</w>
suaŋŋati kun</w>
suaŋŋasiġ ma
suaŋŋa taanun</w>
suaŋŋa taaniñ</w>
suaŋa vlutiŋ</w>
suaŋa sisaiññ
suaŋa ił̣h
su ġni
su vluaqtu
su utilaaŋanik</w>
su ukkaŋ
su ttauq</w>
su su
su raġaġni
suraġaġni payaa
su q</w>
su nun</w>
su nak
su ktuŋa</w>
su ktuaq</w>
su ktu
su aŋagaich</w>
sr aluktu
siḷḷ a
siḷġiq suġ
siḷivinŋa ruanik</w>
siḷivi nŋaruaq</w>
siḷalli ġu
siḷ uni</w>
siḷ gu
siḷ ataanun</w>
siḷ ataa
siḷ amiittuat</w>
siḷ all
siŋñ atu
siŋñ agi
siŋi i
siŋii ġumiñaġlugik</w>
siġḷiġni uġutit</w>
siġġaqi ruat</w>
siġ ḷiqi
siññ ullu</w>
siñiqsr aqługu</w>
siñiks aŋaruat</w>
siñi ksaa
siñ un</w>
siñ aata</w>
sivuġ aŋi
sivuuġagi nagich</w>
sivuuġ avlutiŋ</w>
sivuuq qat
sivunniuġuti ŋich</w>
sivunni utini</w>
sivunmuk tuq
sivuniġi lugu</w>
sivuniq aŋitchuq</w>
sivuniq aqtuat</w>
sivuniq aqpauŋ</w>
sivulliuqtau ruat</w>
sivulliq sun</w>
sivulli ġivlugu</w>
sivulli um</w>
sivulli ich</w>
sivukki ksi
sivukkiksi ḷugich</w>
sivu ŋni</w>
sivu niqsi
sivu miñi</w>
sivikitchu amik</w>
sivi suuraqtuami</w>
sivi kisuur
sivikisuur ami</w>
siv ḷusi</w>
siv siññun</w>
sisama ŋat</w>
sisam allu</w>
siqł̣u ta</w>
siqum uti
siqu mi
siq unnii</w>
siq siŋa</w>
siq iñiġ
siq aŋaruq</w>
siq aqtut</w>
simmi qsu
simmausiq ł̣ugu</w>
siiġñaqaġvi k</w>
siiġñaqaġ viŋmiñ</w>
siiġñaqaġ viŋmik</w>
sigi ga</w>
siamin ŋaruat</w>
siami nŋarut</w>
siami nni
si ŋagaa</w>
si maaġ
si gu</w>
say aitchut</w>
say ai
savik paŋnik</w>
savik pag
savaŋa tilaaŋa</w>
savaurriñiġ mi</w>
savaurr iñ
savaktu ksrau
savakti ksr
savakkumiñ aitchuq</w>
savaaq aqtuat</w>
savaaksri usi
savaaksr apiaġatamik</w>
savaa ŋiññik</w>
savaa ŋich</w>
savaa tka</w>
savaa tin</w>
savaa mun</w>
savaa miñiñ</w>
sav aŋma
sausi iñŋagaat</w>
sau miŋ
satq ag
saq qaaġ
sapiġñ aqtuaq</w>
sapiġñ aqtuallu</w>
saniġ aannun</w>
san na</w>
salumma ks
saluma iḷḷ
salumaiḷḷ isau
saluma itchu
salu mmaa
salummaa ni
salliuniat aktuat</w>
salli ġuuti
salapqi ruakun</w>
salapqi agaa</w>
saglutiginni g
sagluqi lugich</w>
saglu t
saaqsi gai</w>
saaq łutiŋ</w>
saaq ł
saaq tuq.</w>
saa ŋaruq</w>
saa ġu
saa ġiñ</w>
s- munaglaan</w>
s tus-mik</w>
s aġiñ</w>
s aġi
s aqłutiŋ</w>
s aqłuta</w>
s aqsr
s aq</w>
s api
s aniq
s amma</w>
ruksraupi aqtusi</w>
ruksr anik</w>
ruag uvlutiŋ</w>
rua gutilaaŋanik</w>
rua gitchuq</w>
ru ŋalu</w>
ru s-mik</w>
ru s-lu</w>
ru aŋitchuatun</w>
ru alli</w>
rru tiŋich</w>
rri utivlugich</w>
rraqsi ñiaqtut</w>
ri tun</w>
ri ni</w>
ri mun</w>
raġi gaich</w>
raġ aŋagaat</w>
rau rusi</w>
rau ruq</w>
rau ruatiin</w>
r ygi
r aqtut</w>
r aiñ
r aani</w>
qłu giḷḷu</w>
quyyavigi qqaaqługu</w>
quyyatigi lusi</w>
quviq taiḷi
quviasu utt
quviasu utigivlugu</w>
quviasu usiaq
quviasu usi
quviasu unmik</w>
quviasu unmiglu</w>
quviasu piaġat
quviasu kłutiŋ</w>
quviasu ktu
quviasu ktigi
quviasu gitchi</w>
quviasu al
quviasaaġusi aq
quti m</w>
quti ksriuq
qutiksriuq siuŋ</w>
ququaŋa gik</w>
ququaqtau ruat</w>
ququ aġiaġlugich</w>
ququ aqługich</w>
ququ aqt
qulliq aġ
qulli q</w>
quliaqtuaġuti ŋagaatigut</w>
quliaqtuaġuti yaqtu
quliaqtuaġuti lugich</w>
quliaqtuaġ itquvlugich</w>
quliaqtuaq aqtuaq</w>
quliaqtuagu niaqtuq</w>
quliaqtu aqtuaq</w>
quli ŋŋuġu
quli ni</w>
quli gu
qulaurrusiqi viŋmi</w>
quiññaks aqt
quiññaksaqt amik</w>
qu ŋił̣ł̣usi</w>
qu ġ
qu unni
qtu ksrau
qtu allu</w>
qsi tch
qsau ŋarut</w>
qqaaġ niaqtuq</w>
qqaaġ lugu</w>
qq ammi
qiḷiqsrui vḷugu</w>
qiḷaŋ mukkumiñ
qiññaq aŋarut</w>
qiññaq aqłuni</w>
qiññaq aqtuq</w>
qiññaq aqtuanik</w>
qiñuiġ ḷutin</w>
qiñiġ naitchuaq</w>
qiñiġ nai
qiñiġ n
qiñiġ alu
qiñiyun aqtigi
qiñiq ługu</w>
qivi aŋaruŋa</w>
qivi aŋagai</w>
qivi aqłuni</w>
qivi aqługu</w>
qivi aqługich</w>
qiv li
qitun ġiuġluni</w>
qitun à
qitqan nun</w>
qitiq qaġman</w>
qisiqsiuti ŋi</w>
qinnal ipiaġat
qinnalipiaġat aŋaruq</w>
qinnal i
qinnali piaġataŋarut</w>
qin nak
qimmi ch</w>
qimitchi vig
qimiqq am</w>
qimaktau luni</w>
qimak ługich</w>
qima ŋagaich</w>
qima ŋagaat</w>
qima i
qima guu
qima glugu</w>
qilami qsru
qiksiksr aunmiglu</w>
qiksi ksrau
qikiqt aq</w>
qikiqt ami</w>
qik aŋaruq</w>
qiaqp aktuat</w>
qi tumma
qi rriutivlugich</w>
qi mauti
qi aŋarut</w>
qaġġisi ŋagaak</w>
qaġġisi vlugich</w>
qaġġir rau
qavsi ñik</w>
qaunakł aan
qaunaksri mmatun</w>
qaun akkusiaq
qaummaġi ksuanik</w>
qaummaġi k
qaumma ŋa</w>
qaumm aum</w>
qaumm aqtigi
qaumanġ ani</w>
qaumaniq pak</w>
qauma niġmiñik</w>
qaukł iḷi
qau ŋisigun</w>
qau mmatiq
qatt at</w>
qatiqtu aq</w>
qatiqtu allu</w>
qati ŋisa</w>
qasiḷi aġi
qapiŋaisaaq łi
qapiŋaisaa ġuu
qapiŋaisaa ġutau
qapiŋais aaġuti
qapiŋa si
qapiŋa irrutiq
qapiq taiḷiq
qapi qłutiŋ</w>
qanusi payaur
qanuqitilaa qtau
qanuq sausi
qanuq paa
qanuq p
qanu siġ
qani łłutiŋ</w>
qani ttuat</w>
qan miŋnun</w>
qan aaġu
qamalli ġuurrau
qamalli uruat</w>
qama nġ
qamanġ agun</w>
qallugaur am</w>
qalli ŋaruq</w>
qalli piaġat
qalli kami</w>
qali ġi
qakugu liqaa</w>
qakiq t
qaiḷḷ aiġuti
qaiḷ utiŋ</w>
qaiñi ŋanun</w>
qaiñi mnun</w>
qaiñi aqtuŋa</w>
qaiñi aqtilaaŋanik</w>
qaisau ruatigun</w>
qaisau ruanik</w>
qaipk aqsigik</w>
qai ŋatilaamnik</w>
qai ŋaruaq</w>
qai ŋammiut</w>
qai ł̣ł̣ugu</w>
qai ł̣ł̣ugich</w>
qai ġu
qai ruagu
qai mmi
qai gaqsi
qaaŋi ani
qaaŋ iġḷugu</w>
qaa ŋaruq</w>
qa itquvlugich</w>
qa itki
qaitki ga</w>
q ł̣uni</w>
q utigi
q tiq
q pa
q aŋaruq</w>
q aqtuaq</w>
q aiññi
q aaġni
puvl akti
puvl agluni</w>
puuġ ruanun</w>
puuk ataiḷ
puuk at
puu ŋa
puu t</w>
puu nik</w>
putu miñ</w>
puttuqsr iḷḷ
puttuqsr isiq
puttuqsr ikami</w>
punniġutiq aqpisi</w>
punni li
puk uk
puk ug
pug g
pugg uni</w>
pu q</w>
pu llu</w>
pu k</w>
ptiŋ niglu</w>
pkunu una</w>
pkun akäa</w>
pkaŋa gaatigut</w>
pkaġni aġai</w>
pkaġ matun</w>
pkaġ mani</w>
pkaqtau ŋarut</w>
pkaqtau ŋaruq</w>
pkai ruam</w>
pk aġma
pk aġaasi</w>
pk aqłuŋa</w>
pk aqłutiŋ</w>
piḷḷ a
piḷġutch iñiñ</w>
piḷġusiġi itchu
piḷġusi a</w>
piḷġu siv
piḷuuti ŋisa</w>
piḷuuti vsiññiñ</w>
piḷuutaitchu atun</w>
piḷuutaitchu am</w>
piḷuut aiq
piḷuusiqirau lusi</w>
piḷuktu anun</w>
piḷuktu anullu</w>
piḷuksiñiksr aŋanun</w>
piḷuksi ruq</w>
piḷuksi ruat</w>
piḷuksi ruaq</w>
piḷuksi kpan</w>
piḷu utiq
piḷu utaa</w>
piḷu piaġataqtuaq</w>
piḷu gich</w>
piḷ gu
piḷ aitki
piḷ aitchuq</w>
piŋasunug ataqtillugu</w>
piŋasu nun</w>
piŋa iñŋaan</w>
piññ agu</w>
piññ agni
piñi aŋitchusi</w>
piñi aġmiuq</w>
piñi aqpa</w>
piñ atchi
piyuuti lutiŋ</w>
piyumiñ aqsivḷuŋa</w>
piyumiñ aqpa</w>
piyumal aaġ
piyumaaqtu amik</w>
piyu mmi
piyu aqsi
piy aq
piviuttaġi vlusi</w>
piviuttaġi vlugu</w>
piviuttaġi v
piviuttaġi ri
piviuttaġi rauruasii</w>
piviuttaġi piaġat
piviuttaġi kkaġa</w>
piviuttaġi gaa</w>
piviuttaqsriñ ġuvlu</w>
piviuttaqsri ŋitchuaq</w>
piviuttaqquti sitchi</w>
piviuttaqquti luta</w>
piviuttaqqu taaniñ</w>
piviuttaqqu taa</w>
piviuttaq qun</w>
piviuttaq qun
piviksr aqsi
piviksr ani</w>
piviksr am</w>
piu q</w>
pitquti ŋi</w>
pitqurri iŋaruq</w>
pitqur aŋiñi</w>
pitqur aŋa</w>
pitqur atka</w>
pitqur atigu
pitqur apayaurat</w>
pitqur amiñik</w>
pitqur allu</w>
pitqu ŋiññagich</w>
pitqu yuma
pitqu taatun</w>
pitqu taa</w>
pitqu ri
pitchaiḷir aġni
pisuŋiñ ŋaruq</w>
pisuutigi vlugu</w>
pisuu mmiut</w>
pisuqtilaa ptun</w>
pisuksi u
pisu ŋiññi
pisu ŋitkaluakkaġa</w>
pisu ŋa
pisu unmiñik</w>
pisu kkumi</w>
pisu kku
pisu aŋaruq</w>
pisu aġvi
pisu aqtuat</w>
pisigi vluŋa</w>
pisigi vlugulu</w>
pisigi giññaġlugu</w>
pisi vlugich</w>
pisi iḷḷiñiaġai</w>
pisaaŋŋa tinik</w>
pisaa ŋavlugu</w>
piruksrau ŋitchuq</w>
piruksrau vik</w>
piraksriuti ŋiñik</w>
piraksriuti mnik</w>
piraksri ŋagaaŋa</w>
piraksri ŋagaatigut</w>
piraksri ġivsi</w>
piraksri ġikpiñ</w>
piraksri utigi
piraksr iqł̣ugu</w>
piqpaŋ na
piqatiq aqłuni</w>
piqati ni</w>
piqaqtuksrau ŋaiqsugut</w>
piqa siġ
piq p
piq aqtugut</w>
piq aqtuam</w>
pimaqłukt aqtau
pimaqłuk tai
pimaqłuk pasi</w>
pimaaqtu ġumiñ
piksraqtaa ŋi</w>
pikałaktau tairru
piiḷḷi uġniaŋitchutin</w>
piiḷaaġi yumiñaitki
piiḷ aaŋaruq</w>
piiḷ aa
piiḷaa tqiŋaruq</w>
piiġñi aqtuq</w>
piiy aġlugich</w>
piiqsau niaqtuq</w>
piigui pkaġai</w>
pii ġumiñaitkaatigut</w>
pii ġumiñ
pigruġ lich</w>
pigru ġni
pigiraksraġi kkavsiññik</w>
pigiliuti vlusi</w>
pigiiḷḷ iq
pigiitchu atigun</w>
pigiitchu asii</w>
pigiitchu amun</w>
pigi ñ</w>
pigi pk
pigi mmigaa</w>
pigi kkaqsi</w>
pigi kkani</w>
pigi gaich</w>
piaġat aŋaruq</w>
piaġat aġlugu</w>
piaġat aqtusi</w>
piaġat aqtuanik</w>
piaġ uvich</w>
piatchiaqt aqłuni</w>
piaqłuk taŋ
piall aŋarut</w>
piall akługu</w>
piall aktuq</w>
piall akti
piall akki
piall ak
piallak kai</w>
piall ag
pial apiaġat
pi ŋiñik</w>
pi ŋitchusi</w>
pi ŋitchuq</w>
pi uŋ</w>
pi tquvlugich</w>
pi tchaiḷ
pi ruamik</w>
pi riŋisa</w>
pi ki
pi ig
pi guvsiuŋ</w>
pi guvich</w>
pi gumiŋ</w>
pi aŋitchuat</w>
pi aŋ
pi aġmi
pi ayaa
pi aqtuatun</w>
pi aqtu
pi agaksraġi
phi lu
ph o
ph ag
paŋmapaŋ mun</w>
paŋma paglu</w>
paŋ mani</w>
paġl aŋit
paġlaŋit pasi</w>
paġl av
payaur anun</w>
payaur ani</w>
payaa niglu</w>
payaa llu</w>
pay y
paur aq</w>
patch isiq
pasiññi ktuksranik</w>
pasirau yumiñaqsiḷusi</w>
pasikku taat</w>
pasikk unmik</w>
pasi sukługu</w>
pasi raksr
paqit auruq</w>
paqin ŋaitkaat</w>
paqin ŋaitchuq</w>
paqin niaġiksi</w>
paqin ni
paqi łługu</w>
paqi łługich</w>
paq itkaa</w>
paq itchumiñ
paq itch
paq aqłuni</w>
paptaiqsi ñiksraŋagun</w>
paptaiqsau giññ
paptai ġivsi</w>
paptai ġ
paptai quvlu
pan aqłu
panaqłu ŋagai</w>
pamarrusiaksr amik</w>
pali uma
palauvaksraġi ksuanik</w>
palauvaksr atun</w>
pai n
paaqł ak
paaqsaa ŋaruanik</w>
paaqsaa ŋaruamik</w>
paallu gniaqtut</w>
paa ŋaniñ</w>
paa pak</w>
paa ni
paa k</w>
pa siv
pa miu
pa maġ
p tigu</w>
p tigik</w>
p ma
p ch
p alli
ot -mik</w>
on -mun</w>
on -mik</w>
on -li</w>
nŋ iq
nuŋu l
nuġġ aŋanik</w>
nuġġ aŋa</w>
nuvuy aŋigun</w>
nuvuy ami</w>
nuvuy am</w>
nuvuy a</w>
nuv u
nutq aqti
nutch amiñik</w>
nutaġ aun
nut qaŋa
nunuur ali
nunami ŋŋaqtau
nunaaqqi ŋiñiñ</w>
nunaaqqi ŋiñi</w>
nuna miñi</w>
nun nii</w>
nun aŋiññun</w>
nun aŋiñun</w>
nun at</w>
nun at
nun aqp
nun ani</w>
nun amullu</w>
nun amiñun</w>
nun al
nunal iñŋarut</w>
nun akun</w>
nullautchiġ viksr
nuli aŋaruq</w>
nuli amiñun</w>
nuli aksr
nuli aguruaq</w>
nukatpi at</w>
nukaalu ŋi</w>
nu ŋ
nu yu
nu uti
nu taa
nu s
nu ima
nni aŋitchut</w>
nna miuŋ</w>
nna migich</w>
nn avsi</w>
niŋ mata</w>
niġġi iñ</w>
niġu pku</w>
niġrułłu ŋmik</w>
niġiḷait paallugniaqtut</w>
niġiḷ aitchu
niġiñi kun</w>
niġiñ aqtuat</w>
niġiuktu agu
niġiugvigi ŋis
niġi ŋaiḷ
niġi ŋagaich</w>
niġi vḷuni</w>
niġi vḷugich</w>
niġi ru
niġi qatau
niġi gumiuŋ</w>
niġ ġiqsu
niġ iḷḷa
niġiḷḷa ruat</w>
nià i
nià aa</w>
nivliqsu amik</w>
nivliq pan</w>
niviaqsi atun</w>
niv siññun</w>
niu ŋik</w>
niqłi uġuti
niqsu tin</w>
niqsr amun</w>
niqinaqivi ŋmi</w>
niqinaqivi um</w>
niqinaq ini
niqiksr aŋiññik</w>
niqiksr aqsi
niqi nŋ
niq pa
niq aiḷḷ
niqaiḷḷ isaa
nipt aġumi</w>
nipi m</w>
nipi ga</w>
nipauqłuktau ti
nipauqłuktau n</w>
nipatu ruallu</w>
nipai saaġ
nip anni
niksr aŋatigun</w>
niksr aŋat</w>
niksr aq</w>
niksr amik</w>
nikatch aktut</w>
niaġni vḷugich</w>
niaġi tin</w>
niaġi k</w>
niaġalu aqtut</w>
niaġ miusi</w>
niaġ lugu</w>
niaġ asugalutiŋ</w>
niat ag
niaqu ata</w>
niaqqu miñi</w>
niaq uu
ni ŋalu</w>
ni ni</w>
ni gu
ni c
nic e-lu</w>
ni aŋiññi
niaŋiññi vḷugich</w>
ni aŋiñmi
ni aŋitk
ni aŋitchu
ni aġu
ni aquagun</w>
ni aqpik</w>
naŋirruti nik</w>
naŋ ni
naŋ ittuaq</w>
naŋ ittuanik</w>
naġġu gi
nayuqsiuti vlugu</w>
nayumma tau
nayu ŋŋavsi</w>
nayu utini
nav ik
nav gi
nautchirri utau
nautchiaqaġ viŋmiñun</w>
nautchiaksr amik</w>
nauma niqsrau
naugani ktuatun</w>
nau ŋ</w>
nasiq sruġ
narv aŋanun</w>
naqtu akun</w>
napp atqi
nappatqi gḷugu</w>
napp akk
napaaqtu niñ</w>
napaaqtu miñ</w>
nap paq
nanġ aġli
nanġaġli rruŋ</w>
nan ġau
nalur amiŋnik</w>
nalupqinaiġ utinik</w>
nalupqinaiyautau ruat</w>
nalupqinaiy autit</w>
nalupqinaiy ausi
nalunautchi vḷuni</w>
nalunaiñŋutchi ŋagaa</w>
nalunaiñŋutchi utaanik</w>
nalunaiñŋutch iqsu
nalunaiñŋu tau
nalunaiqs aġi
nalunai ŋagaa</w>
nalun aqtuami</w>
nalun aiq
nalukka miŋnik</w>
nalu ruŋa</w>
nalu ruatun</w>
nalu pqitch
nalu giksi</w>
nalu gikput</w>
nalliummati ruq</w>
nalliummati rual
nalliqsi ŋ</w>
nalli at-unnii</w>
nalli ak</w>
nalaurr aqsikpata</w>
nalaunŋasi ŋagaa</w>
nalaunŋasi rau
nalaunŋarualiqini q</w>
nalaunŋa unnagich</w>
nalaunŋa ruam</w>
nalaunŋa ruagu
nalaun ni
nalau t
nalau piaqługu</w>
nal ukkavsiññik</w>
nal aur
nakuułhaaqtu amik</w>
nakuurualiqi lusi</w>
nakuu ruq</w>
nakuu ruamun</w>
nakuu niqsr
nakuu guti
naipiqtu ŋagaat</w>
nai piqtuq
nai nuk
nagruq aqłuni</w>
nagliktuutiqp akun</w>
nagliktu utaagun</w>
nagliksaaġviŋ muk
nagliksaaġutiq pak</w>
nagliksaaqtitau ruat</w>
nagliksaaqtitau niġmik</w>
nagliksaaqtitau niq</w>
nagliksaaqti tpiŋa</w>
nagliksaaqti nni
nagliksaaq paktu
naglikkutiqpaq aŋaruq</w>
naglignaqtigi ruq</w>
nagligi tqulugich</w>
nagguviksr aiġaat</w>
naalaġni ḷḷ
naalaġni ŋagaat</w>
naalagi aqłutiŋ</w>
naal ġat
naa mma
na pa
na iḷ
n ŋaitchuq</w>
n ŋagaatigut</w>
n uu
n es</w>
n es
nes ar
n atqi
n aqtut</w>
n aqtuq</w>
n -unnii</w>
mustard- mik</w>
munaqsri ŋisa</w>
munaqsr i</w>
muk tuqtu
mu ŋaruk</w>
mu giñ</w>
mmi vḷuni</w>
mmi ruaq</w>
mmi givut</w>
mmi givsi</w>
mmi gaatigut</w>
mmaġi ksaaġ
mmaġi ksaaq
mmatiq aqtuŋa</w>
mmati k</w>
mma tiŋ</w>
mma tin</w>
mma nmik</w>
mm allu</w>
miḷuqsauti vlugich</w>
miñ aglaan</w>
miu m</w>
miqłiqtuġi tilaaŋat</w>
miqłiqtuġi gaatigut</w>
miqłiqtu ŋi</w>
miqłiqtu ġlu</w>
miqłiqtu llu</w>
miqłiqtu kun</w>
miqłiqtu a</w>
miqł iq
miqłiq tuq
mile- tun</w>
mikiruurakkalu akun</w>
miinŋa ġmi</w>
mi ut
mi tqutim</w>
mi suġuqtuunmik</w>
mi suk
mi sigik</w>
mi nŋiq
mi ni
mi kunnii</w>
mi kkullu</w>
mi itilaamnik</w>
mi ;</w>
me na
me g
maŋŋuq put</w>
maŋŋuq avig
maŋŋuqavig ruaŋitchuatun</w>
maŋŋuq atigi
maŋŋuli utau
maŋŋu liuti
maŋŋ uksr
mauti k</w>
mau g
mattu muuna</w>
mattu maŋŋa</w>
maqu tch
maqu li
maq sraluktu
maniur amik</w>
mani uraq</w>
mami titchumiñaġiŋma</w>
mami titau
mami nŋarut</w>
malġuu łłuni</w>
malġuu ruak</w>
malġuiqsu aġlugu</w>
malġug niglu</w>
malġu uruat</w>
maliġu aŋa
maliksukti tchi
mali ktuat</w>
mal iq
mal iglu
maliglu ŋa</w>
makpiġaa ŋiñiñ</w>
makpiġ aanik</w>
makku niŋa</w>
makk unaŋŋa</w>
makita ruŋa</w>
makita rut</w>
makit ani
mag aaq
maana -mik</w>
maa ŋŋa</w>
maa ġi
ma ŋnik</w>
ma ŋa
ma vlugu</w>
ma tigik</w>
ma ti
ma th
ma s</w>
ma s-lu</w>
ma ruat</w>
ma nni</w>
ma ksr
m ñiñ</w>
m yrrh
m niglu</w>
m ni
m aur
m -
luq tu
luaġi itchu
lu ni.</w>
lluat at</w>
llu tiŋ</w>
llu tin</w>
llu gusuli</w>
llasi ñi
lla ruaq</w>
ll avlugich</w>
ll aisa</w>
liqsu q</w>
li ŋnik</w>
li rruŋ</w>
li on</w>
li on-tun</w>
li gich</w>
li gaa
li asii</w>
lgi tchuŋa</w>
laitchu si</w>
laitchu amun</w>
lait kivsiŋa</w>
lait kai</w>
laa vsiññik</w>
l itqi
l gun
l g
lg oth
l avigi
l ak
l aitkaat</w>
kuvr atik</w>
kuvi ŋagaa</w>
kuvi vḷugu</w>
kukiḷu ŋarut</w>
kukiḷ uqatigi
ku uŋa
ku t
ku ayaa
kuayaa guruŋa</w>
ku ay
ku aqtuaq</w>
ktu tin</w>
kti nŋa</w>
ksu q</w>
ksu atun</w>
ksrauti gi
ksraqtaa ġi
ksrait pich</w>
ksr aŋanun</w>
ksr aġuġ
ksr aġuq
ksr aġi
ksr an</w>
ksr amun</w>
ksr amnik</w>
ksr amiŋnik</w>
ksiññ aqtuq</w>
ksi ḷu</w>
ks auti
kpiñ ;</w>
kpa tik</w>
kp a</w>
kkutiq aġiñ</w>
kku pku</w>
kku ma
kkaġmi ŋnik</w>
kka tin</w>
kka ptiŋniñ</w>
kka ptigun</w>
kka mnun</w>
kka miŋnik</w>
kka miuŋ</w>
kk aŋiññik</w>
kk aŋata</w>
kk aġnik</w>
kk aġma</w>
kk avsiññiñ</w>
kk avsigun</w>
kk av
kk aat</w>
kk aa</w>
kiḷḷiġruaqtuqtu aq</w>
kiḷḷ iḷiqsu
kiŋuvaannaktu ksraun</w>
kiŋuvaannaktaa ġi
kiŋuvaann agni
kiŋuv aaġi
kiŋuniġi yumiñaqpauŋ</w>
kiŋi aŋaruq</w>
kiŋi aqłuni</w>
kivr isu
kivgau ruq</w>
kivgau ruam</w>
kivg aŋata</w>
kivg an</w>
kivg ami</w>
kivg allu</w>
kivg aliuti
kiutilaa miñik</w>
kiu giññ
kisu nun</w>
kisi vich</w>
kipiġniuġuti t</w>
kipiġniuġ utiq
kipiġni uqłutiŋ</w>
kipiġni uqłuni</w>
kin niq
killuliqi ruali
killukuaqtigi rusi</w>
killuku apiaġat
killu ġivlugu</w>
killu liq
kili kkivsi</w>
kikiaktuuti ŋagaat</w>
kikiaktuuti vlugu</w>
kikiaktuuti tquvlugu</w>
kikiaktuuti li</w>
kikiaktuuti anikamirruŋ</w>
kig gu
ki vlu
ki uva</w>
ki utilaan</w>
ki mik</w>
ki lig
ki isaimmaa</w>
ki isai
kiisai mma</w>
ki gu
kaŋiqsiñaqsi ḷugu</w>
kaŋiqsiñaiñ ŋaruamik</w>
kaŋiqsipk aŋagaa</w>
kaŋiqsipk avsaaq
kaŋiqsi ł̣aur
kaŋiqsi ñi
kaŋiqsi tqugivsi</w>
kaŋi u
kavi uġ
kavanau ruat</w>
kavanau ruamun</w>
kav siŋa</w>
katitin ŋagai</w>
katiti nŋa
katiti nniaŋitchut</w>
katitchi ŋarut</w>
katitch isu
katirrusiqi ruanun</w>
katirrusiq utikun</w>
kati tchumiñ
kati t
kati nmata</w>
kat akłuni</w>
kat aktuat</w>
kat ag
kasu galu
kasima ruanun</w>
kasi maqatigi
kap tun</w>
kap kiñ</w>
kan aak
kanaak kiu
kami glu</w>
kamasu uttaġi
kamasaa ŋitchuaq</w>
kamasaa ŋitchuanun</w>
kamasaa ŋaiġḷusi</w>
kamanaġniqsrau ruaq</w>
kamanau taanun</w>
kamanaqsiḷ iqtu
kamanaqsiḷiqtu aq</w>
kamanaqsi pkaqługich</w>
kamanai qsauniaqtuq</w>
kamana piaġat
kaman aġniaqtuq</w>
kaman autiq
kaman aqtuatun</w>
kaman aqtuamun</w>
kaman aqtuallu</w>
kaman aqtuakun</w>
kamaksriñi kun</w>
kamaksri ŋiññami</w>
kamaksri ŋarut</w>
kamaksri ruanun</w>
kamaksr isu
kamagi ŋił̣ł̣ugich</w>
kamagi ŋagitka</w>
kamagi ŋagaa</w>
kamagi lugu</w>
kama saaqtu
kalimñ at</w>
kakiḷḷ aġnat</w>
kakavy aŋ
kakaksi rraqsiŋaruq</w>
kakaksi r
kai v
kaaksi uliqamiŋ</w>
ka mŋa</w>
k paŋnik</w>
k itch
kitch at</w>
k ann
kann uy
k a</w>
j ah-m</w>
iḷḷi uŋ</w>
iḷḷi asii</w>
iḷḷati laaŋanik</w>
iḷḷa ruaq</w>
iḷḷ avluni</w>
iḷuvviviŋmu ŋarut</w>
iḷuvvi viḷi
iḷuvvi viŋmiñ</w>
iḷuvvi vi
iḷuvvi uġuti
iḷuviq tau
iḷuv ġu
iḷuv iġ
iḷumi ŋni</w>
iḷu ŋniñ</w>
iḷu ptiŋnun</w>
iḷu mullu</w>
iḷu lli
iḷitchuġipk aŋagai</w>
iḷitchuġipk aŋa
iḷitchuġipk airuaq</w>
iḷitchuġi yaqtu
iḷitchuġi ruŋa</w>
iḷitchuġi pkaqtau
iḷitchuġi kamiuŋ</w>
iḷitchuq quti
iḷitchitqur aŋiḷu</w>
iḷitchitqur atkalu</w>
iḷitchitqur atka</w>
iḷitchitqur am</w>
iḷitchitqur aisa</w>
iḷitch uqsr
iḷisuu mmiuŋa</w>
iḷisiman aqti
iḷisima ŋitchusi</w>
iḷisima vlutiŋ</w>
iḷisima vluta</w>
iḷisima vlugich</w>
iḷisima tquvlusi</w>
iḷisima tqugivsi</w>
iḷisima rut</w>
iḷisima ni
iḷisima naqsivḷugu</w>
iḷisima na
iḷisima gai</w>
iḷisima gaat</w>
iḷisi malu
iḷisi m
iḷisi laaŋanik</w>
iḷisaġi ŋaitkaat</w>
iḷisauti vlugich</w>
iḷisauti rraqsiŋagai</w>
iḷisaurrutiŋ iññik</w>
iḷisaurruti tigun</w>
iḷisaurru si
iḷisaurru nmik</w>
iḷisaurri vḷutiŋ</w>
iḷisaurri rut</w>
iḷisaurri pkaqtillugu</w>
iḷisaurr iñiñ</w>
iḷisaurr isuu
iḷi ŋarut</w>
iḷi ŋarusi</w>
iḷi ŋaruq</w>
iḷi ŋagai</w>
iḷi vḷusi</w>
iḷi vsauq</w>
iḷi mman</w>
iḷaŋa ni
iḷau vluŋa</w>
iḷau ruq</w>
iḷaa nni
iḷ uqsr
iḷ aŋannik</w>
iḷ aŋaniñ</w>
iḷ atchi
iḷ aliqsuuti
iḷ ali
iḷ aaġi
iḷ aaqtu
iłuiḷḷiuġuti t</w>
iłuiḷḷiuġ un</w>
iłuiḷḷi uqtitchi
iłuaqtu aliqi
iłuaqsru gaksr
iłuaqsirau ruaq</w>
iłuaqsi ŋagaa</w>
iłuaqsi pkaġni
iłu igutch
iłu ałhaaqtuq</w>
iłu aqsivḷugiḷḷu</w>
iġġi miñ</w>
iġñiq aŋaruq</w>
iġñi ŋi</w>
iġñi ŋan</w>
iġñi q</w>
iġ ḷi</w>
iñŋa vauŋ</w>
iññi ktu
iññi glu</w>
iññ u
iññ aŋarut</w>
iññ aġuuruq</w>
iñuŋ iñiñ</w>
iñuŋ iñi</w>
iñuutqu taagun</w>
iñuut quvlugich</w>
iñuusiq aŋa
iñuusi q</w>
iñuuruksrau rusi</w>
iñuuraqp aich</w>
iñuuniqtu tilaa
iñuuniaġu siq
iñuuniaġniġ ni</w>
iñuuniaġni ġmi</w>
iñuuni vḷugu</w>
iñuuni aŋitchuq</w>
iñuuni aqatigi
iñuu ŋaruat</w>
iñuu ŋaruaq</w>
iñuu ŋai
iñuu yumiñ
iñuu ruatigun</w>
iñuu rraqsiñiaqtut</w>
iñuu lusi</w>
iñuu llasi
iñuu lla
iñuu li</w>
iñuu l
iñuu guvsi</w>
iñupayaur aŋi</w>
iñupayaur anun</w>
iñupayaa niñ</w>
iñupayaa nik</w>
iñukpalli ġñi
iñuk itchuanik</w>
iñugruiññ atun</w>
iñugiaktilaa ŋat</w>
iñugiaktilaa miktun</w>
iñugiaktigi ruat</w>
iñugiak tilaaq
iñugi ŋitkalu
iñuggutiq aquvlugich</w>
iñuggutinnagug luŋa</w>
iñugguti nnag
iñugg unmi</w>
iñug gullu</w>
iñu uvlugu</w>
iñu utilaaŋanik</w>
iñu llu
iñu limaa
iñu kisuur
iñu aġuti
iñu aqtu
iñu aqtau
iñiq ługu</w>
iñiq ti
iñi aġiga</w>
iñi aġaich</w>
iñi aqtut</w>
iñaviq qutch
iñ ŋagaa</w>
iñ uvut</w>
iñ uvsaat</w>
iñ uqaŋaruq</w>
iñ unnagni
iñ .</w>
ivs akt
iviġaummatigilluat akkaġa</w>
iviġaumagi ŋagaa</w>
iviġauma suglugu</w>
iviġauma givlugu</w>
iviġagu kługu</w>
iviġ all
ivigi niaġikpiñ</w>
ivi ŋmi</w>
ivi g
ivig ruatun</w>
ivay aqtu
ivaqłi avluni</w>
ivaqłi a
iv akkaqsi</w>
ittu llu</w>
itquvlu tin</w>
itquvlu ta</w>
itqauma ŋaiġḷugu</w>
itqauma vlusi</w>
itqanaiy aġniaġai</w>
itqanai gani
itqan aitchuatun</w>
itqan aiqs
itq auti
itku ma</w>
itk aatigut</w>
itiq saŋagaat</w>
itilaa ŋat</w>
itilaa ŋa</w>
iti llugu</w>
itchu llu</w>
itchu gut</w>
itchu amun</w>
itchu akun</w>
itchaksr aŋat</w>
it qaġ
it qa
it pat</w>
it pai
it e
isuu rut</w>
isuu ruaġlu</w>
isumma siq
isumma si
isumatu ruaq</w>
isumatu piaŋitchuat</w>
isumattuti kun</w>
isumattu tiŋ
isumattu taat</w>
isumattu taanik</w>
isumattu nmik</w>
isumattu n
isumalluaġi irruti
isumalitqiksu ksraunivḷugich</w>
isumalitqi ŋisuaġuvsi</w>
isumalitqi kkumiñ
isumaaq p
isumaalu utigi
isumaalu uti
isumaa tch
isumaa li
isuma ŋarut</w>
isuma niġni</w>
isuma miñi</w>
isum all
isukł iññayaqtuq</w>
isukł iñ
isuitchu ami</w>
isuan unaglaan</w>
isu mani
isu mali
isu maaqtu
isu ksraq</w>
isu g
isu ani</w>
isiġumiñ aitchut</w>
isivġiġñi aġai</w>
isivġiġ vik</w>
isivġiusiaksr aŋat</w>
isivġiqsau niġmun</w>
isivġiqsau niaqtut</w>
isivġiq sigi
isivġi ġiaġlugich</w>
isiq ami</w>
isima t</w>
isig aŋni</w>
isig aŋiḷu</w>
isig aŋisa</w>
isig aŋi
isig avsiññiñ</w>
isig atka</w>
isi ḷu</w>
isi ŋarut</w>
isi ġuvsi</w>
isaġull ak</w>
isaġuli ŋnun</w>
isaġuli ŋi</w>
isaġuli ni</w>
isaġulg ata</w>
isaġulg anun</w>
isaa ŋagai</w>
is aunnii</w>
is aqqu
is ama
irvi ata</w>
irrusi a</w>
irru tigi
irru siq</w>
iriqtu ġviḷiutiŋagiksi</w>
iri ŋik</w>
ir vianni</w>
iqsu aqłuŋa</w>
iqsu aqtuaq</w>
iqsu ak</w>
iqsiñ asi</w>
iqsiñ aqtuat</w>
iqsitch ak
iqsi tau
iqs aull
iqalu um</w>
iqalu ich</w>
iqallu ŋnik</w>
iqallu k</w>
iq im
iq avsiuŋ</w>
iq atau
iq aluk
ipi vlutiŋ</w>
inni aqtuk</w>
inna pta</w>
inmiñ un.</w>
inmikku aŋa
iniqpaŋ mik</w>
iniqpag mun</w>
inill aŋagaich</w>
ini t</w>
ini mik</w>
in niḷugu</w>
in niaqtusi</w>
in mun</w>
in miŋniñ</w>
in misun</w>
in matun</w>
in aŋi
in aaniñ</w>
in aani</w>
immuli viich</w>
immu aġu
immuaġu r
immi qł̣ugu</w>
imma vlu</w>
imiġuksi u
imiġ nun</w>
imiġ miñ</w>
imiġ matun</w>
imiġ lusiḷu</w>
imiqł utiglu</w>
imi łhiñ
imi qłuniḷu</w>
imi glu</w>
imaq su
ima ksr
im ġum</w>
iluqaa gun</w>
iluq aŋiññiñ</w>
iluq aptiŋnun</w>
iluq ak
iluqak avs
iliŋi ŋnun</w>
iliŋ nullu</w>
iliŋ itchauq</w>
iliŋ isitun</w>
ilitqutchi m</w>
ilitqutchi kun</w>
ilitqusiqł̣uq aŋaruaq</w>
ilitqusiqł̣uq aqtuq</w>
ilitqusiqł̣uq aqtuat</w>
ilitqusiqł̣uq aqtuaq</w>
ilitqusiqł̣u iy
ilitqusi a</w>
ili sau
ili miñik</w>
ili misun</w>
ili mi
ilaiñ ñiñ</w>
ilaisitu uqtinŋagai</w>
ilaaguaqtau ŋaruaq</w>
ilaaguaqtau łhamaaqtuamun</w>
ilaaguaqtau ruamik</w>
ilaa ni</w>
il lusi</w>
il laa
ikł̣igutchaktinniaġ unmun</w>
ikł̣igutchakti tau
ikuvġ ani</w>
ikuvġ amiñi</w>
iksu at</w>
iksi laa
ikk al
ikipkautau suuruat</w>
ikipkai viŋmun</w>
ikipkai viŋmiñ</w>
ikipkai vik</w>
ikipk aunmik</w>
iki pka
ikayuq łuŋa</w>
ikayuq tigi
ikayu ŋagai</w>
ikayu ŋagaat</w>
ikayu ġaatigut</w>
ikayu uti
ikayu utau
ikayu usi
ikaa ŋarut</w>
ik ługu</w>
ik sruġ
ik sru
ik iḷḷi
ik it
ik aaqługu</w>
igḷutuuti ruaq</w>
igḷutu i
igutch aqpaŋ
igniġuuqpatittu atun</w>
igniġuuqpatit aqtuaq</w>
igluqpiñi ġmi</w>
igluqati niḷu</w>
igluq paŋata</w>
igluq paŋa
igluq paum</w>
iglu ŋiññun</w>
iglu mnun</w>
iglu ata</w>
iglau ŋaruq</w>
iglau ŋaruk</w>
iglau pkaqtillugich</w>
iglau ni
igl autigiŋagaat</w>
igitau niġmiñ</w>
igi tchi</w>
igi nŋagaat</w>
ig ñi
ig nikun</w>
ig -nik</w>
ig -
ich ae
i ŋaruk</w>
i ł̣ł̣uni</w>
i tigaurr
i ruat</w>
i ksri
i kpi
hone y-
h uni.</w>
gñiqsr anik</w>
gñ ak</w>
gu ŋaruq</w>
gu t.</w>
gu ruaq</w>
gu miŋa</w>
gu migich</w>
gu mi
gu llaa</w>
gu itchu
giḷ ḷusi</w>
giññ aġlugich</w>
gi vlugich</w>
gi si
gi ksuaq</w>
gayuktu t</w>
gani ŋaruq</w>
gani ktuq</w>
galu aŋŋaġmi</w>
galu aġiga</w>
galu aqłutiŋ</w>
galu aqłusi</w>
galu aqłuni</w>
galu aqtuq</w>
galu ami
gaksraġi givut</w>
gaksrau piaqtuq</w>
gaa ŋalu</w>
gaa .</w>
g viksr
g utigi
g uqti
g ni</w>
g mik</w>
g luni</w>
g aniŋmata</w>
et ri
er ase
erase nes</w>
eo philu
en nesar
em etri
e- nik</w>
e us-lu</w>
e s-mik</w>
e e</w>
e a-mun</w>
b ar
bar le
aŋŋi viŋmi</w>
aŋŋa ġma</w>
aŋŋ isi
aŋuyaŋ niaqtut</w>
aŋuyau tairruti
aŋuyau tai
aŋuyakti nik</w>
aŋuyakti ni</w>
aŋma ŋaruq</w>
aŋiññi vḷugu</w>
aŋiññ asugi
aŋiñi vḷugu</w>
aŋiñ miut</w>
aŋiñ iglu</w>
aŋitku ma</w>
aŋitki si</w>
aŋipkaŋa r
aŋipkaqtau niaqtut</w>
aŋipkaqtau gupta</w>
aŋipkai ŋaruaq</w>
aŋipk aqługu</w>
aŋi uqsi
aŋi ruq</w>
aŋi luni</w>
aŋi kpata</w>
aŋalayy au
aŋalatchi ruaniñ</w>
aŋalatchi r
aŋalataġi ŋaiġ
aŋalat kai</w>
aŋalalluat aqulugich</w>
aŋal atau
aŋal alli
aŋaiġ ḷutiŋ</w>
aŋaiġ ḷutalu</w>
aŋaiġ ḷuta</w>
aŋaiñŋa ġmi</w>
aŋaiyyuyaqtu ġviannik</w>
aŋaiyyuvikp aŋani</w>
aŋaiyyuvigi su
aŋaiyyuvi ich</w>
aŋaiyyuvi givlugu</w>
aŋaiyyuti vlusi</w>
aŋaiyyuti mni</w>
aŋaiyyuti kun</w>
aŋaiyyuliqsiq paq
aŋaiyyuliqsiq pak</w>
aŋaiyyuliqiru aŋisa</w>
aŋaiyyuliqiru anullu</w>
aŋaiyyuli aqamiŋ</w>
aŋaiyyu suuruat</w>
aŋaiyyu si
aŋaiyyu niġmik</w>
aŋaiyyu guvsi</w>
aŋaiyy utiq
aŋaiyy unmik</w>
aŋaiyy un
aŋaitchu si</w>
aŋaitchu gut</w>
aŋagalu aqtuq</w>
aŋa t
aŋa niglu</w>
aŋa llu</w>
aŋa iqsu
aŋ utiq
aŋ utinik</w>
aŋ utik</w>
aŋ utaiy
aŋ matun</w>
aŋ maq
aŋ iḷḷutiŋ</w>
aŋ itkaa</w>
aŋ isalu</w>
ałham aaġ
ałhaaqtu at</w>
aġvi aniñ</w>
aġuu ruŋa</w>
aġut aiḷ
aġuq pan</w>
aġup tigu</w>
aġup taunnii</w>
aġumiñaqsi ḷugich</w>
aġumiñ aitchut</w>
aġuk łutiŋ</w>
aġuk łusi</w>
aġug luni</w>
aġu uvisiuŋ</w>
aġniġ lu</w>
aġniq apta</w>
aġniaġalu aġivsiŋa</w>
aġniaġ aich</w>
aġniaġ aatin</w>
aġni ŋatun</w>
aġni ŋanun</w>
aġni ġmi</w>
aġni kun</w>
aġni aqtugut</w>
aġni aqpa</w>
aġni allaġmi</w>
aġmi ḷuni</w>
aġmi utin</w>
aġma ŋnik</w>
aġma talu</w>
aġma nni</w>
aġlu talu</w>
aġis aġiñ</w>
aġis aqługu</w>
aġi ŋaitpisiuŋ</w>
aġi ul
aġataviksi llugich</w>
aġalu aqłusi</w>
aġalu aqtusi</w>
aġ ukługu</w>
aġ r
aġ niqsut</w>
aġ niqsuq</w>
aġ itquvlugu</w>
aġ itchiḷi</w>
aġ ayaqtuq</w>
aġ asugalugu</w>
aġ aaŋa</w>
aġ aa
aà ni
aà ik
ayu uq
ayauŋa ruak</w>
ayau ŋaruatun</w>
ay un
ay aġni
ay aqtuŋa</w>
ay a
avyu q</w>
avyu a</w>
avit aksraġi
avitaksraġi ŋitkaa</w>
avilaitqati ŋi</w>
avilaitqati ni</w>
avilait qatau
avi ŋagaa</w>
avi si</w>
avi rrusi
avati ŋni</w>
avati ŋi</w>
avat aanni</w>
avat aani
av va</w>
av u
av siññiglu</w>
av itkumiuŋ</w>
autilaa miñik</w>
autigi lugich</w>
autaa ŋagaich</w>
autaa ġusi
aurrau viksraŋa</w>
aun ni
aun miñun</w>
aun miñik</w>
aun mi</w>
aun aaq
aullaġni aqtuŋa</w>
aullarri ŋisa</w>
aullaqtitchi ŋaruq</w>
aullaqisaa q</w>
aullaq ta</w>
aullaq siññ
aullaaqsi ruŋa</w>
aull aŋarugut</w>
aull aŋa
aull aġviksrautimnun</w>
aull aġuma</w>
aull aġukłuni</w>
aull aġmiŋ</w>
aull aġlutin</w>
aull aurrauviksraŋa</w>
aull atqiŋaruq</w>
aull asiq
aull asi
aull aquvlugu</w>
aull aqu
aull aqtuksrau
aull aqtillugu</w>
aulayy auti
aulaqp aŋaruq</w>
aul ay
aul alaitchuaq</w>
aul alaitchuamun</w>
au ŋiññik</w>
au ŋaruq</w>
au taanik</w>
au ruŋa</w>
au rua
au n</w>
au mnik</w>
au ktun</w>
au k</w>
atuġuk kaa</w>
atuqtuur aqtit</w>
atuqtu at</w>
atukkirrutigi vlugu</w>
atu utinik</w>
atu uti
atq iḷ
atq aŋaruŋa</w>
atq aŋaruaq</w>
atq aġiñ</w>
atq alu</w>
atinġi ġumiŋ</w>
atigi iksu
ati ġmik</w>
ati ġi
ati ġa</w>
ati sivḷutiŋ</w>
ati qaġ
ati laa
ati ktun</w>
atausiŋŋuqatigiŋa kaptigu</w>
atausiŋŋuqatigi ŋagiksi</w>
atausiŋŋuqatau ruq</w>
atausiur amik-unnii</w>
atausisualu ŋmik</w>
atau siqunnii</w>
atanġiqsi tch
atanniqsimanni ŋ
atanniqsimanni ktuat</w>
atanniqsima vlugich</w>
atanniqsima saaqsigai</w>
atanniqsima ri
atanniqsima r
ataniġnaqutiq ałhaaqtuq</w>
ataniġnaqutiq aqtilaaŋanik</w>
ataniġnaqutiksr iñŋavauŋ</w>
ataniġnaqutiksr isilaamnik</w>
ataniġnaquti pkun</w>
ataniġnaquti ga</w>
ataniġnaqun migun</w>
ataniġnaqu siq
atani ġi
atanaur aŋich</w>
atanaur anik</w>
atan ġu
atan niqsu
at quvlugu</w>
at ar
at aiġ
at ag
at aani
at aa</w>
asuŋa ġnagu</w>
asuŋa ġnagich</w>
asiḷiqquti kullu</w>
asiñuu rri
asiv ḷugu</w>
asi ḷu</w>
asi tchi</w>
as- miñ</w>
as- li</w>
arru ŋ</w>
arr ilisau
arguġi ann
arg aŋiñi</w>
arg akisu
argakisu uraq</w>
ar aktu
ar -mik</w>
aqłuk tun</w>
aqłu gi</w>
aquvlu tiŋ</w>
aquvlu tin</w>
aquvi titau
aquvi ti
aquv itquvlugich</w>
aquv isi
aquptaa qłutiŋ</w>
aquppiut aŋiññik</w>
aquppiut aŋi</w>
aquppiut aksr
aquppiutaksr allatu
aquppiutaksrallatu mmiut</w>
aquppi pkaqtillugu</w>
aqup piḷḷatu
aqup pivi
aqu yuma
aqu luŋa</w>
aqu giga</w>
aqtuksrau rusi</w>
aqtuagu ruaq</w>
aqtu ŋa
aqtu ġvigi
aqtu ġlu</w>
aqtu avlu</w>
aqtit kich</w>
aqtin ŋagaa</w>
aqti łługich</w>
aqti tkaatigut</w>
aqti tchuma
aqti llavlugu</w>
aqsiññ aqługu</w>
aqsiññ aqtuaq</w>
aqsiv ḷuta</w>
aqsi ḷusi</w>
aqsi ŋagaat</w>
aqsi ruŋa</w>
aqsi maaġ
aqsi gaasi</w>
aqsaa vlugu</w>
aqs aġiñ</w>
aqs aġat
aqs autigillaan</w>
aqpi ur
aqpi siŋa</w>
aqpan ŋaruq</w>
aqpalli ŋarut</w>
aqpaallu ktuq</w>
aqpa gu</w>
aqp aktun</w>
aqh utik</w>
aqaġvi k</w>
aqaġ li</w>
aq aŋarut</w>
aq av
aq atau
aq aqtuaġlu</w>
aq aqtuaq</w>
apiġitqi ŋagai</w>
apiġitqi ŋagaat</w>
apiġipi aġivsi</w>
apiġi ŋagik</w>
apiġi ŋagaich</w>
apiġi ŋagaak</w>
apiġi givsi</w>
apiġi gaa</w>
apiqsri ŋarut</w>
apiqsri ruŋa</w>
apiqsri rut</w>
apiqsr iñi
apiqsr ivḷuni</w>
apiqsr isu
apiqsr isi
api aŋitchu
api aġni
aph tali
apayaa niñ</w>
apai gi
ap uġ
ap tatiq
ap qun</w>
anuġaksi mman</w>
anuq łi
annuġaaġ lutiŋ</w>
annuġaaq aŋaruq</w>
annuġaaq aqtuat</w>
annuġaalu ŋmun</w>
annuġaa ŋa</w>
annuġaa miñ</w>
annuġaa ksraq
annuġaa ksr
annisi ŋagaat</w>
annisi vlugu</w>
anniqsuutigi iksu
anniqsuutau ŋai
anniqsuutau yumiñ
anniqsuusiaq aġn
annauti yumiñ
annaurrauni ksraqsi</w>
annaurrau niaqtusi</w>
annau ttuiñ</w>
ann aunmun</w>
ann akti
ann akkumiñ
aniqatiiv siññiñ</w>
aniqati ptiŋniñ</w>
aniqati kput</w>
aniqati itkaa</w>
aniqati itka</w>
aniqan mi</w>
aniqan ma</w>
aniq saap
aniq arvich</w>
anik tauq</w>
anik kamigich</w>
ani t
ani nŋagaat</w>
ani kpan</w>
ani kamitku</w>
ani iqsuaqtuaq</w>
anaumi k
anau vlugu</w>
an niġ
an aguti
amit tin</w>
amik .</w>
ami ḷḷu</w>
ami ŋnun</w>
ami gich</w>
am miñik</w>
am aqłu
am ali
alġaqsruutigi sukługu</w>
alġaqsruutigi gikput</w>
alġaqsruiñi pkun</w>
alġaqsruitquvlu ta</w>
alġaqsrui ruat</w>
alġaqsrui ruaq</w>
alġaqsrui rau
alġaqsru utigiŋa
alġaqsru iñiq
alġaqsru ivḷutiŋ</w>
alġaqsru iv
alġaqsru ir
alġai ŋich</w>
aluktu q</w>
alu aġnagu</w>
allaŋŋuqtau ŋił̣ł̣utiŋ</w>
allaŋŋuqtau vlutiŋ</w>
allaŋŋu l
allaŋŋ uqti
allatuqtu aguruq</w>
allatu un</w>
allasi ḷugich</w>
allak anik</w>
allaa ni</w>
alla sivḷuta</w>
all amiñ</w>
all ami</w>
all akun</w>
all aisa</w>
aliuġnaqtigi rut</w>
aliqi rim</w>
aliasuŋis aaġuti
aliasuŋis aaġ
ali vsauq</w>
ali uġi
ali rau
ali r
ali ktun</w>
algitch uq.</w>
algi tchuq</w>
ala ruat</w>
al laan</w>
al iġ
al gu
al auv
al al
al aitchuamik</w>
akä aqs
akutuq pali
akuqtuġn aġumiñaqsi
akuqtuq tau
akuqtuaġi ŋiññiġaat</w>
akuqtu ŋagaa</w>
akuqtu ġumiñaqsiḷugu</w>
akuqtu piaġataqługu</w>
aktu ŋa</w>
aktu amik</w>
aksraġi giksi</w>
aksr aliktu
aksr ai
akka si</w>
akka mnun</w>
akk uti
akiḷḷiḷiġñi aġaasi</w>
akiḷḷiḷiqsuġ ai</w>
akiḷḷiḷiqsu qti
akiḷḷiḷiqsu i
akiḷḷ iḷi
akiḷḷ iv
akiḷiusiaq aġniaqtuq</w>
akiḷiusiaq aani
akiḷiusiaqaani ktut</w>
akiḷiusiaksr aqsi</w>
akiḷii runi</w>
akiḷi iviginiaġikpiñ</w>
akiññ aktuatun</w>
akiññ ag
akisu ruatun</w>
akisu ruamik</w>
akisu ru
akisu piaġataqtuamik</w>
akimi aŋanni</w>
akima ruaq</w>
akiiḷ aqtuq
akiiḷ aaq</w>
akig aqługu</w>
aki mna</w>
ak ługik</w>
ak siḷḷ
ak pata</w>
ak ma</w>
ak .</w>
aiḷ ḷugich</w>
aiḷ aagu
aił̣ł̣u si</w>
aił̣ł̣u niḷu</w>
aiġ ḷuta</w>
aiġ ḷusi</w>
aiġ ñ
aiññi ġ
aiññi vḷugich</w>
aiñiġ a</w>
aiñ ŋagaa</w>
aiñ ñik</w>
aiñ matun</w>
aiyugaa ŋagaa</w>
aitki vsi</w>
aitk uvsi</w>
aitchuġumiñ aġaasi</w>
aitchuutiginni ktuam</w>
aitchuutigi ŋatilaaŋanik</w>
aitchuutigi ŋaruq</w>
aitchuutigi ŋakk
aitchuutigi ŋagai</w>
aitchuutigi vluni</w>
aitchuutigi sigik</w>
aitchuutigi niaġiga</w>
aitchuuti ŋiñik</w>
aitchuuti tin</w>
aitchuuti si</w>
aitchuuti ni</w>
aitchuutau ŋarut</w>
aitchuutau ruaq</w>
aitchuusiaq aŋaruŋa</w>
aitchuusiaq aŋaruaq</w>
aitchuq łuta</w>
aitchuq ługich</w>
aitchui ruq</w>
aitchui ruksrau
aitchu ġaluaġnagu</w>
aitchu utiq
aitchu iḷutin</w>
aitchu iñi
aitchu anun</w>
aitch uqtu
aitch itchi</w>
ait qi
ait kivsiŋa</w>
aiqł̣u si</w>
aiq sut</w>
aip paapak</w>
aip p
aimaaġvi vsiññun</w>
aimaaġ viŋmi</w>
aili vich</w>
ai ŋarut</w>
ai ġitin</w>
ai n
ai ch
ah -lu</w>
agv isau
agu ruat</w>
aglu ta</w>
aglu si</w>
agl akti
agl agluni</w>
agiḷ aaġ
aggi iñ</w>
ag utilaa
ag nun</w>
ag n
ag aksr
ag aat</w>
ach el
ab ri
ab i
aaġutiq aqpat</w>
aaġi vsi</w>
aaġ luq
aaġ a</w>
aasi imma</w>
aaqsi ḷugu</w>
aaqsi mmata</w>
aaq łuŋa</w>
aaq tigi
aapaŋa n</w>
aapaŋa lu</w>
aapa miñun</w>
aapa ga</w>
aap ani</w>
aakaru aŋa</w>
aag nik</w>
aag ani
aa v
aa t
aa rraqsiŋarut</w>
aa kav
a- ġmiut</w>
a- uruŋa</w>
a x
a tuttauq</w>
a ruŋa</w>
a payauraq</w>
a payaat</w>
a iḷis
a d-
Ze al
Zacch aeus</w>
Vashti -m</w>
Uyaġ ag
Uvvau kua</w>
Uvlu q</w>
Uvani inŋitchuq</w>
Uvagu lli</w>
Uv li
Uu muuna</w>
Uqavig aaġutiqaqpat</w>
Uqauti givsi</w>
Uqallauti ŋŋa</w>
Uqallauti ŋagaich</w>
Uqallakku pta</w>
Uqall auttutigut</w>
Uqall autigi
Uq av
Uq amaqłu
Un niqsuqłi
Umiaqpag aqtit</w>
Umiali ŋnat</w>
Umialg ata</w>
Umialg annik</w>
Ukpiġu rvich</w>
Ukpi li
U ŋi
U tiq
Tyre- vlu</w>
Tyre- miḷu</w>
Tychi cus</w>
Tuv r
Tutqiutiq aġiñ</w>
Tusaayugaa ġiksuat</w>
Tusaa ŋarusi</w>
Tusaa ŋagiksi</w>
Tusaa gani
Tuqu tch
Tuq qu
Tiŋ mi
Timothy -miḷḷu</w>
Tili raŋa</w>
Tigu taaqtau
Tiglig nak</w>
Tig li
Thoma s-lu</w>
Th eophilu
Tavr aasi</w>
Tavr aaglaan</w>
Tautuk sigik</w>
Tautugiaqt aqpisiuŋ</w>
Tautu ŋagiga</w>
Tamat ki
Tainnatchi m</w>
Tainnain niġman</w>
Tainnain miuq</w>
Tainnain man</w>
Tain naptauq</w>
Taigu aŋaitpisi</w>
Tai mm
Tai maŋŋaqaŋa</w>
Taavru muŋa</w>
Taavru mani
Taapku niŋa</w>
Taamnau ruq</w>
Taam natualuuŋiñmiuq</w>
Taa pkun
T ut
Sy ria-
Sun aimña</w>
Sumi kunnii</w>
Suliqutau va</w>
Su aŋa
Steph en-mik</w>
So dom</w>
Siġġaq i
Siġ ḷiġ
Sinai -mi</w>
Simon -mun</w>
Simon -mik</w>
Sil vanu
Sil o
Sid on-miḷu</w>
Sh e
Savaiññi ŋanni</w>
Savaiññi q</w>
Saul -mun</w>
Saul -lu</w>
Saul -gum</w>
Sar ah</w>
Sapiġñ aqtuatiin</w>
Sapiġñ aqtuaq</w>
Saglu tigi
Saag aġnasi</w>
S uvlu
S pain
S isama
S amu
S amma</w>
Rome- mi</w>
Rom e</w>
Re u
R h
R achel
Quviasu piaġat
Quvi a
Quq uu
Qu lli
Qil amik</w>
Qavsi ñik</w>
Qaunagi sigik</w>
Qanutu łhaaq</w>
Qanutu payauraq</w>
Qanuq łutin</w>
Qanuq sausi
Qanuq pisiiḷḷiñiaġai</w>
Qanuq inniġ
Qanu ġni
Qanu sipayaa
Qanu payaaq</w>
Qakugu limman</w>
Q iñu
Q ima
Q im
Q iksi
Puvl aksi
Psalm s-
Pon tius</w>
Piḷuut aitchuaq</w>
Piḷuut aitchu
Piḷ uktu
Piŋayu ak</w>
Piññ aġn
Piyu mmatiqaqtuŋa</w>
Piviuttaġi sigik</w>
Piviuttaġi rauruatiin</w>
Piviuttaġi pi
Piviutt aġisaġiñ</w>
Pitqur atigu
Pisu qtilaa
Piraksr iġ
Piq atau
Piq asi
Piq a
Pi iḷaaġi
Phoeni ci
Pharis ee</w>
Pharaoh -m</w>
Ph rygi
Persi a-m</w>
Per ez
Paġl ati
Paul -mik</w>
Paul -
Paqin ŋagikput</w>
P ysi
P unni
P itqu
P im
P atch
P alauv
P aaq
Onesi mus</w>
Ob ed-
O meg
Nun aŋa</w>
Nun aliqirim</w>
Nuli agu
Nicode mus</w>
Nautchi aksrat</w>
Nau ma
Nathanae l</w>
Nathanae l-gum</w>
Napaaqtu payaaq</w>
Nanġ aġlakput</w>
Nalupqisu ŋitchuŋa</w>
Nalupqi gi
Nalun ai
Nalliu mmati
Nalli vsi</w>
Nalli ataunnii</w>
Nalautch aġiñ</w>
Nalaunŋaru akun</w>
Nalaun ŋava</w>
Nalaun ŋaruamik</w>
Nagliktuutiq paŋata</w>
Nagliktuusiaqp aqaġitchi</w>
Nagli kkutiqaġiñ</w>
Naalaġni sitchi</w>
Naal aktu
N iqi
N aŋ
N ayuq
N ayu
N ar
N aphtali
N aku
Mose s-lu</w>
Mordecai -mun</w>
Moab -miñ</w>
Miqłiqtut kaa</w>
Miqłiqtu urat</w>
Matth i
Matth ew-lu</w>
Matth at
Mary -mik</w>
Malġu k</w>
Mal ġim</w>
Mak it
Mah l
Macedoni a-m</w>
M ile
M ichae
M i
M aqu
M an
M amittin</w>
Laodic ea-
L uk
Kiñ auv
Kiñ auna</w>
Kisi ŋŋuq
Kipiġniuġ utigigiga</w>
Kin naġ
Killu ku
Kigguti ksraitpich</w>
Ki ŋu
Ki uvich</w>
Ki uva</w>
Ki uv
Ki mulliqaa</w>
Kama kkutiqaġitchi</w>
Judea- miittuat</w>
Jud ah-m</w>
Jud ah
Ju stus-mik</w>
Ju li
Jonah -mun</w>
John -miñ</w>
John -mik</w>
Jew-guŋitchu anullu</w>
Jew-guŋitchu anik</w>
Jew-guqati tka</w>
Jew-gu ruŋa</w>
Jew-gu ruasii</w>
Jew-gu galu
Jesus- gutilaaŋanik</w>
Jesus -guruŋa</w>
Jerusalem-mu ŋarut</w>
Jerusalem- miittuat</w>
Jerusalem- m
Jas on</w>
Jacob -mullu</w>
Iḷitchuġi sitchi</w>
Iḷitchitqur aŋisa</w>
Iḷitchitqur aq</w>
Iḷisima gitin</w>
Iḷisauti kkich</w>
Iḷaŋ is
Iḷaksian agich</w>
Iḷ aur
Iłuałhaa ŋanay
Iġñiġi nivḷuni</w>
Iġñiġi nivḷugu</w>
Iġñi ŋatun</w>
Iġñi ŋagun</w>
Iġñi ġmigun</w>
Iġñi tualuni</w>
Iñuu siġi
Iñuu sitchi</w>
Iñuu k</w>
Iñugiaktilaaq aqpalliŋarut</w>
Iñu ŋmik</w>
Iñu ŋi</w>
Iñu payaanun</w>
Iñu lluataq</w>
Iñu itchuq</w>
Iñu gli
Iñ uvsaanik</w>
Iv aġniaġaluaġivsiŋa</w>
Itqauma sitchi</w>
Itqanaiy aġvi
Itq autim</w>
Itchaksr iġmata</w>
It qaunmik</w>
Isummatigi visigik</w>
Isumal luaġiitchu
Isuma gi
Isu maaġ
Israel -nun</w>
Israel -miu
Isivġi qsau
Isiv ġiq
Isaġulg anulli</w>
Isaġul gum</w>
Isaac -lu</w>
Isaa kkich</w>
Iqalu gni
In miñik</w>
Imma imña</w>
Im nai
Iluq atik</w>
Iluq aisa</w>
Iluq aan</w>
Ilitqusiġiksu aġa</w>
Ilitqusiġiksu ani</w>
Ilitqusiġiksu amigun</w>
Ilitqusiqł̣u k</w>
Ilitqusi q</w>
Ilitqusi a</w>
Il vich</w>
Ikayuq ti
Ig luq
Iconi um
I ti
I risi</w>
I qsitch
Ho sanna</w>
Herod- lu</w>
Herod- kuay
He gai
Greek- gich</w>
God-igi kkan</w>
God-igi gaat</w>
God-i ŋma</w>
God-i ŋat</w>
God-i m
God-au ŋitchuq</w>
God- mullu</w>
God- miŋŋaqtu
God- iq
Go lgoth
Galilee- miittuamiñ</w>
Galilee- miittuami</w>
G erasenes</w>
G ennesar
G amali
G alli
G abri
Fes tus-gum</w>
Ephesus- miut</w>
En och
Elij ah-mun</w>
Egypt -miut</w>
Egypt -miu
E thiopi
E phr
D emetri
D e
Corinth -
Christ-gu ruŋa</w>
Christ- guvich</w>
Christ- gutilaaŋanik</w>
Can aan
Caiaph as</w>
Cai n
Caesarea- miñ</w>
Bible- niñ</w>
Bethany -mun</w>
Beth phag
Ber nice-lu</w>
Ber ea-mun</w>
Beelzebul -kun</w>
Bar tholomew-lu</w>
Balaa m</w>
B ig
Aŋuy ak
Aŋaiyyuvik paŋmi</w>
Aŋaiyyuvi gi
Aŋaiyyu liqi
Aŋaiy yuguvsi</w>
Aull aġlutin</w>
Aull aqta</w>
Atu ġnagu</w>
Atausiŋŋuq atau
Atausi u
Atanġu ruaŋaa</w>
Atanġ uvlu</w>
Ataniġ naq
Atani ġi
Atani q
Atani ptiŋnik</w>
Atani mnun</w>
Atan aur
At q
Asi a-mi</w>
Artemi s</w>
Ari math
Ar abi
Aqulli q</w>
Aqpaliurr aqtitun</w>
Ap qutiksriuqsiuŋ</w>
Anniqsu utau
Annaurri ptalu</w>
Aniqati n</w>
Aniqati itkaa</w>
Aniq aan</w>
Andr ew
Anani as-mik</w>
An nau
Alġaqsrui ŋaruŋa</w>
Alph aeus</w>
Alph a-uruŋa</w>
All attauq</w>
All amik</w>
Aki s
Aki mi
Aitchu usiaġi
Ag aayy
Ag aayu
Abraham -mik</w>
Abi jah-m</w>
Ab el</w>
Aapa mniñ</w>
Aapa miitilaamnik</w>
Aapa gi
Aapa galu</w>
Aap av
ATANIĠ -mun</w>
ATANIĠ -miñ</w>
A ŋŋis
A ŋi
A yu
A vva</w>
A tuġ
A ti
A siñ
A sh
A nay
A mma</w>
A kiḷḷiḷiqsu
A an
7 0</w>
4 4</w>
1 44</w>
1 0</w>
000 -nun</w>
- tai</w>
- muŋaruq</w>
ḷḷ aġmi</w>
ḷḷ avsi</w>
ḷḷ aruaq</w>
ḷḷ aa
ḷġutau ruq</w>
ḷuat aŋa
ḷu ŋalu</w>
ḷu ġru
ḷu siunnii</w>
ḷu sik</w>
ḷu ni
ḷuni unnii</w>
ḷu gi</w>
ḷu atau
ḷiġ niaġiga</w>
ḷiq ługu</w>
ḷi uti
ḷ uktugut</w>
ḷ an
ḷan ŋu
ŋŋu ġuu
ŋŋuġuu taat</w>
ŋŋu aqłutiglu</w>
ŋŋu aqłuta</w>
ŋŋu aqtuatun</w>
ŋŋaqt anik</w>
ŋñ iqsr
ŋñ a</w>
ŋun ġu
ŋunġu ŋŋuaqłuta</w>
ŋnu ŋa</w>
ŋni ḷuŋa</w>
ŋni ŋat</w>
ŋni aŋitkivsi</w>
ŋni aqtugut</w>
ŋni aqtit</w>
ŋn ani</w>
ŋiḷḷu ġi
ŋiḷḷ akk
ŋiḷaa tigun</w>
ŋiḷaa kun</w>
ŋiḷ au
ŋiḷ aaq</w>
ŋił̣ł̣u gulu</w>
ŋił̣ aa
ŋiññiqsr auruaq</w>
ŋiññi ŋagaa</w>
ŋiññ iḷuni</w>
ŋiññ iḷugu</w>
ŋiññ iqsut</w>
ŋiññ ami
ŋiññ ama</w>
ŋiñmi gaaŋa</w>
ŋiñ ŋaruq</w>
ŋiñ ŋagaluaqtutin</w>
ŋiñ miuŋa</w>
ŋiñ miusi</w>
ŋiñ matun</w>
ŋiñ mata</w>
ŋitpi gich</w>
ŋitki kpiñ</w>
ŋitkaluaŋŋa ġma</w>
ŋitkaluaŋŋa isa</w>
ŋitkalu aŋŋavsi</w>
ŋitkalu aŋŋaan</w>
ŋitkalu aġupta</w>
ŋitkalu aġu
ŋitkalu aqtuq</w>
ŋitk uvsiuŋ</w>
ŋitk uvsigik</w>
ŋitk aich</w>
ŋitk aasi</w>
ŋitchuma gaat</w>
ŋitchu siḷu</w>
ŋitchu llu</w>
ŋitchu asii</w>
ŋitchu anullu</w>
ŋitchu aniñ</w>
ŋitchu amullu</w>
ŋitchu alirau
ŋitch uni</w>
ŋit pasi</w>
ŋit pa</w>
ŋisu aġuvsiŋa</w>
ŋisu aġupku</w>
ŋisu aqpata</w>
ŋisu aqpagich</w>
ŋisilaa ŋannik</w>
ŋisilaa mnik</w>
ŋis aŋiññik</w>
ŋis aŋa</w>
ŋis aġnun</w>
ŋipiaġat aqtugut</w>
ŋi ł̣haaġ
ŋi rrutigi
ŋi ksr
ŋi aqsi
ŋatilaa ġnik</w>
ŋatilaa qsi</w>
ŋasugaa vsi</w>
ŋaru ani</w>
ŋaru allu</w>
ŋar aŋanun</w>
ŋar avut</w>
ŋar an</w>
ŋar amiñun</w>
ŋar aanun</w>
ŋar aa
ŋaraa tchiaq</w>
ŋaq taall
ŋaniġ uvsi</w>
ŋaniġ aatigut</w>
ŋammi ruat</w>
ŋammi giga</w>
ŋammi gaak</w>
ŋamma si</w>
ŋamma gich</w>
ŋakka tin</w>
ŋakka si</w>
ŋakk aŋiñik</w>
ŋakk aŋata</w>
ŋakk aŋannun</w>
ŋakk aŋanik</w>
ŋakk aqsi</w>
ŋaiġñi aqtuq</w>
ŋaiġ ḷutalu</w>
ŋaiġ ḷugiḷḷu</w>
ŋaiġ ḷ
ŋaiñŋa ġmiŋ</w>
ŋaiñŋa ġma</w>
ŋaiñ ŋ
ŋaiy asiñi
ŋaitku miŋ</w>
ŋaitki tin</w>
ŋaitki kput</w>
ŋaitkalu aŋŋaan</w>
ŋaitkalu aqtuq</w>
ŋaitk aatigut</w>
ŋaitk aasi</w>
ŋaitk aak</w>
ŋaitchu atun</w>
ŋaitchu aniñ</w>
ŋait pigiñ</w>
ŋait pan</w>
ŋais aŋanik</w>
ŋais aŋa</w>
ŋaiqsu ŋa</w>
ŋaiqsu si</w>
ŋaiqsi tch
ŋaiq uvluta</w>
ŋai ŋagaat</w>
ŋai ġivsi</w>
ŋai payaa
ŋagalu aġmiuq</w>
ŋagalu aġivsi</w>
ŋagalu aġikpiñ</w>
ŋagalu aġai</w>
ŋagalu aqtuŋa</w>
ŋagalu aqtuaŋaa</w>
ŋagaa si
ŋagaasi ;</w>
ŋag uvsiŋa</w>
ŋag uvich</w>
ŋa ŋaiġḷusi</w>
ŋa talu</w>
ŋa ruamiñ</w>
ŋa ruami</w>
ŋa qqaaq
ŋa nniglu</w>
ŋa niŋagun</w>
ŋa niŋa</w>
ŋa nivḷugich</w>
ŋa nasugaluŋa</w>
ŋa n
ŋan nullu</w>
ŋa liŋarut</w>
ŋa li</w>
ŋa kpan</w>
ŋa kavsi</w>
ŋa kapkich</w>
ŋa k</w>
ŋa iġñ
ŋa itchuq
ŋa isima
ŋa isilaa
ŋa gupku</w>
ŋa -suli</w>
ŋ ñik</w>
ŋ ñi
ŋ uv
ŋuv aan
ŋ usi
ŋusi ġutch
ŋusiġutch iġḷugu</w>
ŋ miñi</w>
ŋ matun</w>
ŋ iq
ŋ aasii</w>
ł̣ł̣ utik</w>
ł̣u ta</w>
ł̣u si</w>
ł̣hiñau luni</w>
ł̣haaġ luni</w>
ł̣haaq pa</w>
ł̣h aa
ł̣haa sugru
ł̣aur anik</w>
ł̣ utiglu</w>
ł̣ igutchakti
łłu niḷu</w>
łłu niasii</w>
łł uktun</w>
łł aŋaruq</w>
łu talu</w>
łu ni
łu k</w>
łi piaġat
łi ataata</w>
łhiñ au
łhamaaġ niaqtut</w>
łhamaaqtu amik</w>
łham aaqtau
łham aa
łhaaġni vḷugich</w>
łhaaġ lutiŋ</w>
łhaaġ lugu</w>
łhaaġ alu
łhaaqtu at</w>
łhaaqtu aq</w>
łhaaqtu anik</w>
łhaaq łutiŋ</w>
łhaaq siuŋ</w>
łhaaq si
łhaaq pich</w>
łhaaq pa</w>
łhaa ŋaiġḷugich</w>
łhaa ŋagaat</w>
łaur akk
łaurakk aqsi
łaurakkaqsi suli</w>
ł łutin</w>
ł utik</w>
ł aaġman</w>
ġñi vḷugich</w>
ġñi aġaat</w>
ġñi aġaasi</w>
ġñi aqtusi</w>
ġñi aqtuq</w>
ġñi aqpigu</w>
ġñ agu</w>
ġvigi tqu
ġvi anun</w>
ġuu ŋagai</w>
ġuu gisi</w>
ġuu gaa</w>
ġuti ŋich</w>
ġutau ruamik</w>
ġusi ma
ġusi amnik</w>
ġuq łuni</w>
ġuq ługu</w>
ġumiñaitk aasi</w>
ġumiñ aġikpiñ</w>
ġumiñ aġaat</w>
ġumiñ aqługich</w>
ġumiñ aqtuq</w>
ġumiñ aiññi
ġumiñ aitkai</w>
ġumiñ aipiaqtuq</w>
ġuma gaasi</w>
ġug lutiŋ</w>
ġug luni</w>
ġu ŋitchuq</w>
ġu ŋagaa</w>
ġu ġni
ġu ġman</w>
ġu ġluni</w>
ġu taiññi
ġu siq
ġu pkich</w>
ġu mausi</w>
ġu maaqługu</w>
ġu llu</w>
ġu iqsi
ġni vḷugu</w>
ġni vsigun</w>
ġni k
ġnik taa
ġniktaa ġiyumiñaitkai</w>
ġni aŋitkiñ</w>
ġni aŋit
ġna siḷu</w>
ġna itchu
ġn at</w>
ġmiu niñ</w>
ġmi ḷuni</w>
ġmi vḷugu</w>
ġmi unun</w>
ġmi raġigaich</w>
ġmi glu</w>
ġm aunnii</w>
ġm allu</w>
ġlu siḷu</w>
ġlu gulu</w>
ġiq ł̣utiŋ</w>
ġiq ł̣usiḷu</w>
ġiq ł̣uniḷu</w>
ġiksu aq</w>
ġiksu amun</w>
ġi ŋitkaaŋa</w>
ġi si</w>
ġi ruaq</w>
ġi rauniaqtuq</w>
ġi liuti
ġi kput</w>
ġi itchuaq</w>
ġi aġlutin</w>
ġi aġlusi</w>
ġi atun</w>
ġi all
ġiall akti
ġiallakti qqaaġ
ġiallaktiqqaaġ l
ġiallaktiqqaaġl agu</w>
ġi al
ġat aġlugu</w>
ġaqtu n</w>
ġaq s
ġ ḷuŋa</w>
ġ ḷiuŋ</w>
ġ ḷ
ġ viq
ġ viksr
ġ uqł
ġuqł utillu</w>
ġ uktu
ġ uksi
ġ miñik</w>
ġ miñ
ġmiñ iñ
ġmiñiñ qaŋa</w>
ġ lutiŋ</w>
ġ lakput</w>
ġ iñiaġaa</w>
ġ itchu
ġitchu uŋ</w>
ġ itch
ġ aiḷḷugich</w>
ññ aqtuatun</w>
ñià ai</w>
ñi q</w>
ñi glu</w>
ñi aġiga</w>
ñi aġaa</w>
ñi at
ñiat aktuatun</w>
ñi aqtuaq</w>
ñ ġ
ñ uk</w>
ñ iqsr
ñ .</w>
äni aà
äat mun</w>
äaq ani</w>
ä un
ä niàaa</w>
ä niaq
ä ni</w>
ä nak
änak äa</w>
ä itchuq</w>
ä at</w>
ä ap
ä !</w>
âu aà
âh iñau
â uktit
âuktit luni.</w>
â iq
â i
áá uni,</w>
á uni.</w>
á u
á gitch
àñi aà
àñiaà viä
àu mi</w>
àiaà uni,</w>
à uti
à uk
àuk naqtuq.</w>
à nià
à ikp
àikp an
àikpan ,</w>
z r
yy aġlugich</w>
yumiñaŋagalu aqtuq</w>
yumiñaġu misigik</w>
yumiñaqsi ḷutin</w>
yumiñaqsi ḷuni</w>
yumiñaqsi ḷugik</w>
yumiñaqsi rut</w>
yumiñaiññi aqtut</w>
yumiñaiñmi givsi</w>
yumiñaiñ ŋavich</w>
yumiñaiñ ŋagaat</w>
yumiñaiñ miut</w>
yumiñaiñ miugut</w>
yumiñaitki ksi</w>
yumiñaitkalu aqtut</w>
yumiñ aġumausi</w>
yumiñ aġuglusi</w>
yumiñ aġivut</w>
yumiñ aġiga</w>
yumiñ aqługich</w>
yumiñ aquvlugu</w>
yumiñ aqtuamun</w>
yumiñ aqtilaa
yumiñaqtilaa ŋa
yumiñ aqtigi
yumiñ aqsivḷusi</w>
yumiñ aqpisik</w>
yumiñ aqpagich</w>
yumiñ aiññiq
yumiñ aitchuaq</w>
yumiñ ais
yumiñ aiqł̣ugich</w>
yumiñ ai
yumal iġ
yumaliġ ḷuniunnii</w>
yumal iquvlugich</w>
yumagi ptigut</w>
yumaaġ nivḷugu</w>
yumaaġ alu
yumaaqtu at</w>
yumaaqtu anun</w>
yumaaqtu am</w>
yumaa ŋaruaq</w>
yumaa lli
yumaa gaqsi
yuma łhaaqługich</w>
yuma ruat</w>
yuma gikput</w>
yuma gaasi</w>
yuktu t</w>
yug aqtut</w>
yug aksraġi
yugaksraġi visigik</w>
yu ġaaġ
yu mma
yu iḷ
yuiḷ atun</w>
yu anun</w>
ysi a</w>
yr na
ych us</w>
yau ġiksi</w>
yasi mman</w>
yaqtuq łuŋa</w>
yaqtuq łuniḷu</w>
yaqtuq sigik</w>
yaqtu ŋŋa</w>
yaqtu ŋaruq</w>
yaqtu ġuglugu</w>
yaqtu ġluni</w>
yaqtu qłuni</w>
yaaġ niaqtut</w>
yaa lu
yaalu ŋi</w>
y un
y ri
y ni
y mena
ymena eus-lu</w>
y m
y asiñ
y aqłuktun</w>
y aqi
yaqi ŋagaat</w>
y aqhuni.</w>
y aqhi
yaqhi ikkalu
yaqhiikkalu aq</w>
y aaq
y a-m</w>
wine-tuq tiq
wine-tuqtiq paglu</w>
wine- g
win e-gum</w>
vḷuti ktauq</w>
vḷu ŋalu</w>
vḷu niasii</w>
vḷu giḷḷu</w>
vḷu gik</w>
vsiññ unaglaan</w>
vsiññ iḷu</w>
vsi ŋñun</w>
vsi ŋni</w>
vsi suli</w>
vsaaġ niaġmiuq</w>
vru mi
vlu talu</w>
vlu nuk</w>
vlu gu
vlugu ptauq</w>
viŋmu llavsi</w>
viŋ ñik</w>
viŋ iñiñ</w>
viŋ ich</w>
viq aqtutin</w>
viksr aŋanun</w>
viksr aŋan</w>
viksr aqput</w>
